<unk>	0
<s>	0
</s>	0
an	-0
▁t	-1
er	-2
▁m	-3
▁s	-4
in	-5
▁b	-6
▁T	-7
en	-8
ak	-9
▁d	-10
ar	-11
om	-12
at	-13
▁Tom	-14
is	-15
▁k	-16
▁a	-17
▁h	-18
ang	-19
ou	-20
▁I	-21
ah	-22
▁p	-23
▁y	-24
▁th	-25
▁w	-26
ya	-27
▁A	-28
am	-29
al	-30
on	-31
it	-32
▁l	-33
ing	-34
as	-35
el	-36
em	-37
id	-38
ku	-39
un	-40
▁c	-41
ed	-42
or	-43
▁to	-44
▁men	-45
▁you	-46
es	-47
▁di	-48
uk	-49
▁f	-50
ik	-51
▁the	-52
▁S	-53
▁is	-54
▁Aku	-55
idak	-56
ap	-57
▁in	-58
us	-59
▁M	-60
et	-61
il	-62
▁tidak	-63
▁ber	-64
▁n	-65
ad	-66
▁r	-67
▁g	-68
▁se	-69
▁K	-70
▁Th	-71
▁D	-72
▁W	-73
akan	-74
ve	-75
▁it	-76
▁mem	-77
aya	-78
ur	-79
amu	-80
ot	-81
▁yang	-82
ir	-83
nya	-84
ow	-85
da	-86
ere	-87
▁o	-88
im	-89
ia	-90
▁H	-91
▁per	-92
hat	-93
▁an	-94
au	-95
▁be	-96
pa	-97
ol	-98
um	-99
kan	-100
▁B	-101
ul	-102
▁do	-103
▁ter	-104
▁itu	-105
▁ke	-106
ut	-107
gi	-108
ay	-109
ant	-110
re	-111
▁Mar	-112
ic	-113
eng	-114
▁j	-115
▁meng	-116
le	-117
ok	-118
▁e	-119
▁ini	-120
▁of	-121
ver	-122
▁Mary	-123
▁memb	-124
ari	-125
ent	-126
▁kamu	-127
ave	-128
▁st	-129
▁Saya	-130
ukan	-131
▁me	-132
▁Dia	-133
ac	-134
▁The	-135
▁was	-136
ud	-137
aku	-138
▁akan	-139
ih	-140
os	-141
ga	-142
▁P	-143
apa	-144
▁on	-145
alah	-146
▁ar	-147
ep	-148
▁that	-149
ld	-150
ung	-151
▁Y	-152
▁un	-153
▁It	-154
▁mel	-155
▁go	-156
gh	-157
▁tah	-158
▁for	-159
▁have	-160
▁ne	-161
engan	-162
ob	-163
anya	-164
▁You	-165
▁Wh	-166
ter	-167
▁dengan	-168
isa	-169
▁He	-170
ong	-171
▁your	-172
mu	-173
eb	-174
orang	-175
ana	-176
▁don	-177
▁lik	-178
ain	-179
▁bisa	-180
▁al	-181
▁aku	-182
uka	-183
ly	-184
akah	-185
ri	-186
▁he	-187
ch	-188
▁J	-189
▁this	-190
up	-191
▁at	-192
end	-193
▁my	-194
ingin	-195
ita	-196
▁are	-197
▁ad	-198
▁kn	-199
ja	-200
▁can	-201
ab	-202
▁saya	-203
▁want	-204
ami	-205
▁like	-206
▁har	-207
▁unt	-208
ada	-209
ght	-210
ome	-211
od	-212
he	-213
▁We	-214
out	-215
▁Apa	-216
unya	-217
ill	-218
her	-219
very	-220
▁not	-221
▁Kamu	-222
▁untuk	-223
angan	-224
uh	-225
ust	-226
▁An	-227
ould	-228
▁know	-229
▁ingin	-230
▁tahu	-231
▁apa	-232
pakah	-233
ti	-234
uku	-235
▁In	-236
▁sa	-237
akukan	-238
ali	-239
asa	-240
▁ada	-241
ook	-242
op	-243
▁re	-244
▁What	-245
▁pergi	-246
ua	-247
ihat	-248
udah	-249
ara	-250
ama	-251
▁did	-252
ek	-253
▁Apakah	-254
▁This	-255
any	-256
and	-257
▁adalah	-258
alam	-259
adi	-260
hing	-261
▁L	-262
▁dari	-263
▁ba	-264
▁bel	-265
ith	-266
▁sh	-267
▁suka	-268
▁with	-269
▁sed	-270
▁C	-271
▁tel	-272
▁dia	-273
▁pr	-274
▁dan	-275
▁wh	-276
▁his	-277
uat	-278
ai	-279
one	-280
▁and	-281
ink	-282
ikan	-283
▁harus	-284
alu	-285
▁Anda	-286
▁seb	-287
▁as	-288
int	-289
per	-290
▁makan	-291
▁li	-292
ingg	-293
emb	-294
ka	-295
angat	-296
▁sudah	-297
▁bah	-298
▁has	-299
▁sek	-300
ati	-301
▁ab	-302
ost	-303
▁tr	-304
▁mas	-305
▁wor	-306
ebih	-307
▁Do	-308
▁Ini	-309
est	-310
▁orang	-311
▁we	-312
▁meny	-313
ore	-314
▁any	-315
agi	-316
▁lebih	-317
▁sedang	-318
▁punya	-319
▁She	-320
▁sangat	-321
aw	-322
ll	-323
▁kau	-324
ereka	-325
▁melakukan	-326
ous	-327
▁si	-328
▁sel	-329
▁Kami	-330
▁kita	-331
▁terl	-332
▁pl	-333
inya	-334
▁car	-335
▁sin	-336
▁what	-337
▁E	-338
ind	-339
▁le	-340
▁N	-341
▁mana	-342
▁sem	-343
ec	-344
ight	-345
▁here	-346
aj	-347
enar	-348
▁tim	-349
inggal	-350
umah	-351
▁us	-352
▁ch	-353
day	-354
▁My	-355
ake	-356
ry	-357
▁sini	-358
uc	-359
ast	-360
▁him	-361
▁mer	-362
▁Itu	-363
anyak	-364
▁dalam	-365
▁eat	-366
▁berb	-367
▁menc	-368
all	-369
▁melihat	-370
▁think	-371
▁need	-372
▁very	-373
▁does	-374
▁O	-375
▁That	-376
nah	-377
apan	-378
av	-379
▁time	-380
jadi	-381
ce	-382
pen	-383
▁F	-384
ag	-385
▁about	-386
▁banyak	-387
▁lagi	-388
▁all	-389
other	-390
▁pada	-391
▁so	-392
st	-393
ase	-394
▁one	-395
si	-396
▁fr	-397
uj	-398
▁pernah	-399
▁ti	-400
wa	-401
▁didn	-402
▁sp	-403
annya	-404
▁G	-405
ish	-406
▁going	-407
erja	-408
▁How	-409
ame	-410
▁Don	-411
amb	-412
amp	-413
ice	-414
▁ap	-415
▁rumah	-416
▁no	-417
▁Where	-418
▁R	-419
▁Tidak	-420
▁hari	-421
apat	-422
▁out	-423
art	-424
▁mend	-425
if	-426
oun	-427
▁up	-428
▁bukan	-429
emp	-430
ika	-431
ree	-432
▁look	-433
▁will	-434
ist	-435
enang	-436
▁seorang	-437
uar	-438
lease	-439
our	-440
oston	-441
▁Boston	-442
▁Jangan	-443
lah	-444
ally	-445
▁bers	-446
▁there	-447
thing	-448
eh	-449
oh	-450
ont	-451
▁bert	-452
▁There	-453
▁member	-454
▁tahun	-455
▁but	-456
▁had	-457
arang	-458
asi	-459
atu	-460
obil	-461
▁get	-462
▁been	-463
▁than	-464
▁doesn	-465
▁Mereka	-466
ata	-467
iri	-468
ilik	-469
▁mau	-470
▁They	-471
▁book	-472
lu	-473
ays	-474
▁telah	-475
ff	-476
ate	-477
▁Is	-478
ikir	-479
▁Kita	-480
ell	-481
ear	-482
▁kep	-483
ack	-484
anc	-485
ren	-486
▁dr	-487
▁min	-488
▁sur	-489
▁mu	-490
▁should	-491
ese	-492
▁home	-493
▁kami	-494
▁masih	-495
ub	-496
uah	-497
▁ex	-498
atang	-499
der	-500
▁Ber	-501
▁set	-502
▁hal	-503
▁pen	-504
▁baik	-505
▁saja	-506
akt	-507
▁hap	-508
elp	-509
ide	-510
▁her	-511
ess	-512
kin	-513
ajar	-514
▁see	-515
riend	-516
▁from	-517
▁by	-518
▁work	-519
▁belum	-520
olong	-521
▁bahasa	-522
▁br	-523
▁bar	-524
▁benar	-525
▁Ada	-526
aik	-527
▁mobil	-528
aki	-529
▁kel	-530
▁read	-531
▁isn	-532
▁te	-533
angg	-534
ungg	-535
▁kem	-536
▁sep	-537
ion	-538
alan	-539
uang	-540
▁help	-541
▁just	-542
gg	-543
oom	-544
own	-545
alau	-546
▁terb	-547
▁Are	-548
▁Let	-549
▁bes	-550
▁wat	-551
ought	-552
▁tinggal	-553
aca	-554
▁com	-555
▁every	-556
ct	-557
ungkin	-558
▁mus	-559
▁too	-560
▁seper	-561
ive	-562
ort	-563
▁Di	-564
▁Kau	-565
▁Why	-566
▁"	-567
eli	-568
▁bi	-569
▁cl	-570
▁kali	-571
▁more	-572
oc	-573
engar	-574
icara	-575
▁buku	-576
▁v	-577
ima	-578
▁pad	-579
▁come	-580
▁datang	-581
ite	-582
ood	-583
▁ker	-584
ation	-585
▁tiga	-586
▁wakt	-587
atakan	-588
▁still	-589
alk	-590
emu	-591
▁tak	-592
▁en	-593
main	-594
ber	-595
urn	-596
▁wr	-597
idur	-598
ather	-599
▁never	-600
aga	-601
uatu	-602
▁ses	-603
▁hous	-604
▁play	-605
▁satu	-606
▁stud	-607
▁Tolong	-608
omet	-609
qu	-610
row	-611
▁ser	-612
▁were	-613
▁good	-614
▁send	-615
ank	-616
ose	-617
▁pul	-618
▁sebuah	-619
arn	-620
eman	-621
▁off	-622
▁house	-623
ng	-624
▁am	-625
▁bus	-626
imana	-627
▁Please	-628
▁Pr	-629
▁ket	-630
▁anak	-631
ci	-632
ait	-633
iliki	-634
▁bahwa	-635
▁mereka	-636
▁membuat	-637
▁Per	-638
▁won	-639
▁year	-640
▁semua	-641
▁ag	-642
▁waktu	-643
▁sm	-644
▁berh	-645
▁memiliki	-646
ick	-647
▁bu	-648
ulai	-649
etter	-650
oleh	-651
▁seperti	-652
ew	-653
ody	-654
antu	-655
▁Can	-656
▁mengh	-657
▁sesuatu	-658
▁anything	-659
epat	-660
▁tidur	-661
ild	-662
▁baru	-663
▁much	-664
▁perlu	-665
▁membeli	-666
▁terlalu	-667
anj	-668
ass	-669
▁pe	-670
alia	-671
▁spe	-672
▁prob	-673
▁menjadi	-674
▁sendiri	-675
ty	-676
imp	-677
▁dis	-678
▁friend	-679
▁really	-680
omething	-681
ool	-682
ove	-683
ustr	-684
▁long	-685
▁room	-686
ian	-687
kah	-688
▁Si	-689
ting	-690
▁Who	-691
▁jam	-692
▁could	-693
ves	-694
▁now	-695
▁tent	-696
▁bermain	-697
sel	-698
akit	-699
idup	-700
▁three	-701
▁berbicara	-702
ine	-703
▁af	-704
ound	-705
▁berk	-706
hir	-707
▁got	-708
▁Austr	-709
▁pikir	-710
▁sekali	-711
af	-712
imu	-713
▁con	-714
▁wait	-715
▁kalau	-716
▁Australia	-717
angk	-718
oney	-719
tion	-720
▁say	-721
unggu	-722
▁salah	-723
ger	-724
▁ju	-725
▁speak	-726
▁terjadi	-727
th	-728
▁2	-729
inta	-730
orrow	-731
▁back	-732
▁said	-733
ge	-734
ach	-735
old	-736
▁su	-737
enapa	-738
▁Have	-739
▁When	-740
▁lakukan	-741
▁something	-742
yah	-743
elah	-744
▁kec	-745
▁who	-746
ilang	-747
api	-748
leep	-749
▁kes	-750
▁minum	-751
▁tentang	-752
ahu	-753
▁ac	-754
▁qu	-755
asih	-756
olah	-757
▁new	-758
▁would	-759
ib	-760
▁day	-761
▁lot	-762
ancis	-763
▁kemb	-764
▁tert	-765
▁Siapa	-766
▁berapa	-767
pl	-768
se	-769
ved	-770
▁kam	-771
▁mat	-772
▁uang	-773
ie	-774
ena	-775
ful	-776
itt	-777
▁sw	-778
▁Sem	-779
▁air	-780
▁bek	-781
▁cat	-782
▁mad	-783
▁old	-784
▁siapa	-785
▁happen	-786
▁terlihat	-787
▁money	-788
ect	-789
▁bir	-790
▁sch	-791
ra	-792
▁fl	-793
aran	-794
ople	-795
rench	-796
▁tell	-797
▁malam	-798
▁French	-799
▁memper	-800
▁selalu	-801
▁belajar	-802
▁sekarang	-803
▁melakukannya	-804
orn	-805
ris	-806
caya	-807
▁last	-808
▁must	-809
▁only	-810
▁some	-811
▁drink	-812
akin	-813
arin	-814
▁juga	-815
▁bekerja	-816
▁membaca	-817
▁mendengar	-818
▁gu	-819
▁tw	-820
ried	-821
▁mar	-822
▁our	-823
▁talk	-824
▁Prancis	-825
▁1	-826
isi	-827
ampa	-828
empat	-829
▁mulai	-830
able	-831
anmu	-832
self	-833
▁kot	-834
▁atas	-835
▁name	-836
▁right	-837
▁kembali	-838
ft	-839
air	-840
ard	-841
▁fe	-842
▁dep	-843
▁int	-844
ester	-845
▁down	-846
▁sana	-847
ekerja	-848
▁sakit	-849
▁dib	-850
▁man	-851
▁pun	-852
▁told	-853
▁Every	-854
▁hanya	-855
▁teman	-856
aus	-857
▁bo	-858
ampai	-859
▁sama	-860
▁bertemu	-861
oba	-862
ulis	-863
ways	-864
▁ten	-865
▁tom	-866
akhir	-867
▁Mari	-868
▁school	-869
▁ask	-870
▁bag	-871
▁ters	-872
▁dapat	-873
▁under	-874
▁water	-875
▁father	-876
enc	-877
get	-878
lem	-879
▁gr	-880
▁or	-881
▁par	-882
▁saw	-883
erima	-884
▁lalu	-885
▁made	-886
▁many	-887
▁years	-888
▁Kenapa	-889
esterday	-890
iap	-891
▁aw	-892
▁hav	-893
▁how	-894
▁pan	-895
▁pert	-896
▁hidup	-897
▁always	-898
▁merasa	-899
▁people	-900
▁mungkin	-901
▁meninggal	-902
mer	-903
▁if	-904
gain	-905
uduk	-906
▁beg	-907
▁lama	-908
▁they	-909
▁Semua	-910
▁child	-911
▁sleep	-912
▁problem	-913
pada	-914
▁kar	-915
▁yet	-916
▁went	-917
emukan	-918
▁again	-919
▁daripada	-920
▁menunggu	-921
xt	-922
▁bl	-923
▁buy	-924
▁fir	-925
▁tet	-926
▁Baga	-927
▁when	-928
▁masalah	-929
▁Bagaimana	-930
oth	-931
ven	-932
elum	-933
ough	-934
ucing	-935
▁hand	-936
▁live	-937
▁pint	-938
▁mengg	-939
▁bought	-940
▁keluar	-941
ely	-942
ity	-943
ope	-944
▁feel	-945
▁love	-946
ju	-947
ock	-948
ents	-949
read	-950
▁Did	-951
▁hot	-952
▁put	-953
▁better	-954
▁pulang	-955
▁No	-956
▁co	-957
arkan	-958
▁besar	-959
▁kalian	-960
▁sekolah	-961
▁yesterday	-962
ers	-963
fore	-964
▁pekerja	-965
uru	-966
▁de	-967
ount	-968
▁sec	-969
▁she	-970
ember	-971
▁over	-972
▁take	-973
▁kasih	-974
▁before	-975
▁bilang	-976
▁tangan	-977
ig	-978
enal	-979
enti	-980
▁left	-981
▁kemarin	-982
▁sebelum	-983
eda	-984
iss	-985
umu	-986
amat	-987
benar	-988
▁saat	-989
▁start	-990
ip	-991
▁sal	-992
▁seh	-993
angun	-994
▁door	-995
▁today	-996
aaf	-997
uan	-998
akai	-999
jing	-1000
ulan	-1001
▁rem	-1002
ingat	-1003
uhkan	-1004
▁ever	-1005
▁Kapan	-1006
▁depan	-1007
▁duduk	-1008
▁inter	-1009
▁sampai	-1010
▁tomorrow	-1011
."	-1012
py	-1013
iku	-1014
oll	-1015
ying	-1016
▁cer	-1017
▁dua	-1018
▁keh	-1019
usnya	-1020
▁plan	-1021
▁doing	-1022
▁menang	-1023
▁selama	-1024
▁membantu	-1025
ffic	-1026
ukul	-1027
▁May	-1028
▁acc	-1029
▁sis	-1030
▁berp	-1031
▁make	-1032
▁rain	-1033
▁jalan	-1034
▁kamar	-1035
▁yakin	-1036
▁karena	-1037
ife	-1038
unj	-1039
▁St	-1040
awat	-1041
▁bec	-1042
▁dog	-1043
▁lang	-1044
▁meet	-1045
▁pagi	-1046
▁memberit	-1047
ro	-1048
cle	-1049
▁Bis	-1050
▁sit	-1051
ittle	-1052
▁lain	-1053
▁terk	-1054
▁Sudah	-1055
sw	-1056
ace	-1057
jam	-1058
orm	-1059
ure	-1060
avor	-1061
ukup	-1062
unga	-1063
unia	-1064
▁answ	-1065
▁mati	-1066
▁sure	-1067
▁favor	-1068
▁little	-1069
aan	-1070
ings	-1071
▁dim	-1072
▁fin	-1073
▁imp	-1074
▁two	-1075
epang	-1076
▁berd	-1077
▁call	-1078
▁next	-1079
▁besok	-1080
▁looks	-1081
▁mother	-1082
▁please	-1083
▁setiap	-1084
▁menemukan	-1085
auh	-1086
epon	-1087
uran	-1088
▁bad	-1089
inggu	-1090
jalan	-1091
▁Japan	-1092
▁answer	-1093
ue	-1094
act	-1095
ond	-1096
▁cr	-1097
atan	-1098
ious	-1099
ired	-1100
utup	-1101
▁tan	-1102
ggris	-1103
▁stay	-1104
▁cukup	-1105
▁haven	-1106
▁likes	-1107
▁Berapa	-1108
▁Jepang	-1109
▁tempat	-1110
▁Bisakah	-1111
▁Inggris	-1112
▁berkata	-1113
▁lu	-1114
▁sc	-1115
▁keb	-1116
▁way	-1117
ahkan	-1118
▁Your	-1119
▁diri	-1120
▁open	-1121
▁teac	-1122
▁wasn	-1123
▁week	-1124
berapa	-1125
▁Boleh	-1126
▁learn	-1127
▁watch	-1128
▁wrong	-1129
▁kepada	-1130
▁senang	-1131
▁berhenti	-1132
ee	-1133
esa	-1134
irl	-1135
oke	-1136
uju	-1137
▁mo	-1138
itar	-1139
lish	-1140
unuh	-1141
▁Eng	-1142
▁str	-1143
▁food	-1144
▁kota	-1145
▁seem	-1146
▁swim	-1147
▁after	-1148
▁mencoba	-1149
▁beberapa	-1150
00	-1151
fe	-1152
ail	-1153
ult	-1154
arik	-1155
urun	-1156
▁job	-1157
▁lap	-1158
▁sus	-1159
ahasa	-1160
▁dunia	-1161
▁kecil	-1162
▁leave	-1163
▁young	-1164
▁app	-1165
▁dar	-1166
▁dit	-1167
▁fam	-1168
▁girl	-1169
▁hard	-1170
▁laki	-1171
uangan	-1172
▁Thank	-1173
▁belie	-1174
▁chang	-1175
▁happy	-1176
▁panas	-1177
▁train	-1178
arusnya	-1179
▁sering	-1180
ej	-1181
ble	-1182
ten	-1183
▁gl	-1184
▁dec	-1185
▁dir	-1186
▁ear	-1187
ampir	-1188
ready	-1189
▁Meng	-1190
▁give	-1191
▁stop	-1192
unakan	-1193
▁world	-1194
▁kucing	-1195
▁English	-1196
▁already	-1197
▁brother	-1198
▁katakan	-1199
ich	-1200
oss	-1201
ulu	-1202
okok	-1203
ujan	-1204
ving	-1205
▁pas	-1206
▁done	-1207
▁into	-1208
▁peng	-1209
▁pukul	-1210
▁berada	-1211
▁padaku	-1212
▁berenang	-1213
og	-1214
▁If	-1215
▁ia	-1216
baik	-1217
elas	-1218
iver	-1219
ulit	-1220
▁che	-1221
▁dri	-1222
▁let	-1223
▁pol	-1224
ambat	-1225
▁ayah	-1226
▁berl	-1227
▁night	-1228
▁takut	-1229
▁menger	-1230
▁wanted	-1231
▁mengatakan	-1232
ba	-1233
ans	-1234
era	-1235
eta	-1236
abis	-1237
ated	-1238
ober	-1239
▁bic	-1240
▁met	-1241
▁pal	-1242
▁use	-1243
▁list	-1244
▁luar	-1245
▁bagus	-1246
▁knows	-1247
▁where	-1248
▁friends	-1249
▁children	-1250
son	-1251
▁kan	-1252
▁tua	-1253
antai	-1254
▁radi	-1255
angkat	-1256
▁Rumah	-1257
▁alone	-1258
▁bersama	-1259
▁teacher	-1260
▁underst	-1261
ev	-1262
ies	-1263
body	-1264
▁mak	-1265
▁pel	-1266
tinya	-1267
▁angg	-1268
▁care	-1269
▁late	-1270
▁lupa	-1271
▁Mengapa	-1272
▁makanan	-1273
ahui	-1274
anak	-1275
apun	-1276
ctor	-1277
ukai	-1278
obody	-1279
uanya	-1280
ulang	-1281
▁Amer	-1282
▁arri	-1283
▁atau	-1284
▁cont	-1285
▁turn	-1286
▁menya	-1287
▁wants	-1288
▁percaya	-1289
▁station	-1290
▁thought	-1291
ira	-1292
omp	-1293
▁el	-1294
ikit	-1295
▁res	-1296
ished	-1297
ohong	-1298
▁masuk	-1299
▁Terima	-1300
▁believe	-1301
▁sedikit	-1302
▁everything	-1303
tr	-1304
awa	-1305
umb	-1306
▁ey	-1307
▁ib	-1308
ause	-1309
raid	-1310
ubah	-1311
ycle	-1312
▁pem	-1313
▁red	-1314
ambil	-1315
▁beau	-1316
▁often	-1317
▁other	-1318
▁afraid	-1319
▁eating	-1320
▁enough	-1321
▁memberi	-1322
▁menulis	-1323
▁remember	-1324
iz	-1325
buk	-1326
ile	-1327
ped	-1328
vel	-1329
▁Ke	-1330
▁din	-1331
▁ide	-1332
asiun	-1333
inggi	-1334
▁died	-1335
▁find	-1336
▁hope	-1337
▁morn	-1338
anjang	-1339
▁milik	-1340
▁tetapi	-1341
▁morning	-1342
▁interest	-1343
ath	-1344
ons	-1345
▁20	-1346
▁ph	-1347
laki	-1348
▁Sep	-1349
▁may	-1350
alian	-1351
▁Anak	-1352
▁Ayah	-1353
▁kill	-1354
▁boleh	-1355
▁bulan	-1356
▁first	-1357
▁sibuk	-1358
▁menyel	-1359
▁padamu	-1360
▁looking	-1361
▁merokok	-1362
▁understand	-1363
yo	-1364
ys	-1365
ily	-1366
itu	-1367
unt	-1368
arna	-1369
eber	-1370
ebut	-1371
▁ang	-1372
▁bur	-1373
▁hur	-1374
oking	-1375
ually	-1376
▁cold	-1377
▁jauh	-1378
asanya	-1379
▁books	-1380
▁anjing	-1381
▁nothing	-1382
▁denganmu	-1383
▁happened	-1384
ary	-1385
anku	-1386
ffee	-1387
rang	-1388
▁baw	-1389
▁hit	-1390
unung	-1391
▁busy	-1392
▁cara	-1393
▁meja	-1394
▁part	-1395
estion	-1396
▁cepat	-1397
▁found	-1398
▁harap	-1399
▁hujan	-1400
▁siang	-1401
▁surat	-1402
esaikan	-1403
utuhkan	-1404
▁menangis	-1405
atuh	-1406
augh	-1407
awab	-1408
more	-1409
ungi	-1410
▁Sel	-1411
▁bre	-1412
▁des	-1413
▁kop	-1414
injam	-1415
▁Buku	-1416
▁came	-1417
▁life	-1418
▁them	-1419
▁well	-1420
▁merah	-1421
▁coffee	-1422
▁doctor	-1423
▁anymore	-1424
▁student	-1425
▁memberitah	-1426
▁Ch	-1427
▁sk	-1428
ekor	-1429
ikah	-1430
ream	-1431
▁cry	-1432
▁dok	-1433
onton	-1434
▁jika	-1435
▁wear	-1436
▁hampir	-1437
▁ketika	-1438
▁peremp	-1439
▁bicycle	-1440
▁seharusnya	-1441
▁membutuhkan	-1442
ug	-1443
ilm	-1444
ory	-1445
▁Ib	-1446
acar	-1447
ilih	-1448
▁col	-1449
▁sen	-1450
▁pend	-1451
▁soon	-1452
▁tiba	-1453
amanya	-1454
friend	-1455
kannya	-1456
▁Would	-1457
▁bawah	-1458
▁tried	-1459
▁Nobody	-1460
▁dokter	-1461
▁letter	-1462
▁menget	-1463
▁tinggi	-1464
▁Mungkin	-1465
▁mendapat	-1466
▁question	-1467
got	-1468
▁Ia	-1469
ater	-1470
ekat	-1471
ence	-1472
ited	-1473
usah	-1474
▁ben	-1475
▁fun	-1476
▁ins	-1477
▁mah	-1478
▁pay	-1479
▁sej	-1480
tiful	-1481
▁even	-1482
▁hung	-1483
▁seen	-1484
▁tall	-1485
enting	-1486
▁birth	-1487
▁lives	-1488
▁marah	-1489
▁tepat	-1490
▁tired	-1491
▁turun	-1492
▁paling	-1493
eseorang	-1494
▁mencari	-1495
▁waiting	-1496
▁beautiful	-1497
▁mengambil	-1498
▁pekerjaan	-1499
▁terlambat	-1500
leh	-1501
anda	-1502
▁bed	-1503
▁big	-1504
▁cle	-1505
▁kid	-1506
▁own	-1507
antik	-1508
▁able	-1509
▁aren	-1510
▁hour	-1511
▁lost	-1512
▁muda	-1513
▁rasa	-1514
▁thir	-1515
▁butuh	-1516
▁eaten	-1517
▁lapar	-1518
▁novel	-1519
▁pasti	-1520
▁kereta	-1521
▁Everyone	-1522
▁favorite	-1523
ila	-1524
ner	-1525
ted	-1526
uck	-1527
▁hi	-1528
▁sl	-1529
▁His	-1530
▁del	-1531
▁dip	-1532
▁ked	-1533
▁mov	-1534
▁mur	-1535
angga	-1536
entar	-1537
▁anda	-1538
▁wife	-1539
▁asked	-1540
▁bantu	-1541
▁heard	-1542
▁hotel	-1543
▁pintu	-1544
▁Kalian	-1545
▁begitu	-1546
▁dingin	-1547
▁hungry	-1548
▁import	-1549
▁penting	-1550
▁ruangan	-1551
▁menyukai	-1552
▁tersebut	-1553
▁perempuan	-1554
ny	-1555
▁gi	-1556
gera	-1557
ohon	-1558
unch	-1559
urut	-1560
▁ran	-1561
▁sat	-1562
▁apel	-1563
▁baga	-1564
▁bagi	-1565
▁comp	-1566
▁oleh	-1567
▁took	-1568
iarkan	-1569
▁count	-1570
▁musim	-1571
▁pacar	-1572
▁forgot	-1573
▁langua	-1574
▁seekor	-1575
▁because	-1576
▁kesalah	-1577
▁parents	-1578
▁without	-1579
30	-1580
les	-1581
und	-1582
ance	-1583
oint	-1584
osed	-1585
utus	-1586
▁why	-1587
unjuk	-1588
▁Hari	-1589
▁best	-1590
▁kind	-1591
▁miss	-1592
▁pian	-1593
▁says	-1594
▁used	-1595
▁walk	-1596
▁musik	-1597
▁needs	-1598
▁table	-1599
▁anggur	-1600
▁bangun	-1601
▁listen	-1602
▁berpikir	-1603
▁menggunakan	-1604
age	-1605
cer	-1606
imb	-1607
ohn	-1608
ork	-1609
ump	-1610
aman	-1611
anti	-1612
aper	-1613
asil	-1614
esta	-1615
usia	-1616
▁Seb	-1617
▁gre	-1618
▁ind	-1619
▁kak	-1620
▁kur	-1621
▁tra	-1622
akaan	-1623
ambut	-1624
▁John	-1625
▁both	-1626
▁hair	-1627
▁hasn	-1628
▁pain	-1629
▁pret	-1630
▁same	-1631
▁sing	-1632
upakan	-1633
▁kepad	-1634
▁keras	-1635
▁telev	-1636
▁setuju	-1637
▁himself	-1638
▁meeting	-1639
▁memakan	-1640
▁bersalah	-1641
▁menonton	-1642
▁berbohong	-1643
?"	-1644
aks	-1645
app	-1646
bil	-1647
ogr	-1648
uli	-1649
uri	-1650
▁Sek	-1651
▁att	-1652
ainya	-1653
kanmu	-1654
▁away	-1655
▁eyes	-1656
▁gave	-1657
▁guru	-1658
▁hear	-1659
▁kopi	-1660
▁sick	-1661
encana	-1662
▁break	-1663
▁study	-1664
▁berter	-1665
▁dinner	-1666
▁minggu	-1667
▁traffic	-1668
ala	-1669
ilk	-1670
ise	-1671
uny	-1672
▁ya	-1673
ably	-1674
agia	-1675
esai	-1676
ilah	-1677
most	-1678
orry	-1679
port	-1680
▁Mon	-1681
▁sum	-1682
ayang	-1683
ision	-1684
▁pass	-1685
elepon	-1686
▁Orang	-1687
▁class	-1688
▁lunch	-1689
▁music	-1690
▁radio	-1691
▁seems	-1692
▁their	-1693
ilangan	-1694
▁disapp	-1695
▁segera	-1696
▁sister	-1697
▁memakai	-1698
▁menikah	-1699
▁playing	-1700
▁usually	-1701
▁Bolehkah	-1702
▁menyelesaikan	-1703
ck	-1704
eny	-1705
ict	-1706
ahir	-1707
▁Kem	-1708
▁Sil	-1709
▁ago	-1710
▁boy	-1711
▁dic	-1712
ganya	-1713
▁Does	-1714
▁Maaf	-1715
▁berg	-1716
▁mist	-1717
▁show	-1718
▁siap	-1719
anyaan	-1720
▁early	-1721
▁menit	-1722
▁phone	-1723
▁siswa	-1724
▁sulit	-1725
▁tanpa	-1726
▁change	-1727
▁couldn	-1728
▁forget	-1729
▁sepeda	-1730
▁birthday	-1731
▁mengerti	-1732
▁probably	-1733
▁semuanya	-1734
▁bagaimana	-1735
▁melihatnya	-1736
cus	-1737
man	-1738
oor	-1739
▁At	-1740
▁sn	-1741
emat	-1742
onom	-1743
room	-1744
uter	-1745
▁bas	-1746
▁dil	-1747
▁inf	-1748
▁kab	-1749
kanku	-1750
▁bank	-1751
▁city	-1752
▁dulu	-1753
▁nama	-1754
▁tadi	-1755
▁Kalau	-1756
▁compl	-1757
▁ingat	-1758
▁jawab	-1759
▁laugh	-1760
▁memer	-1761
▁might	-1762
▁ulang	-1763
▁Bahasa	-1764
▁apakah	-1765
▁apapun	-1766
▁cantik	-1767
▁meminta	-1768
▁selesai	-1769
▁started	-1770
▁berjalan	-1771
▁finished	-1772
▁membunuh	-1773
▁berangkat	-1774
▁kehilangan	-1775
nis	-1776
oes	-1777
sat	-1778
▁Ad	-1779
ahan	-1780
ampu	-1781
ffer	-1782
oves	-1783
rect	-1784
▁gar	-1785
▁lib	-1786
▁sup	-1787
hawat	-1788
iting	-1789
otong	-1790
▁conf	-1791
▁film	-1792
▁perf	-1793
▁true	-1794
▁akhir	-1795
▁hands	-1796
▁memas	-1797
▁minut	-1798
▁piano	-1799
▁puluh	-1800
▁trust	-1801
hawatir	-1802
▁wonder	-1803
▁another	-1804
▁stasiun	-1805
▁sebentar	-1806
by	-1807
een	-1808
iak	-1809
ola	-1810
ret	-1811
uth	-1812
▁Be	-1813
▁OK	-1814
arga	-1815
jual	-1816
odoh	-1817
▁box	-1818
▁die	-1819
▁pos	-1820
▁try	-1821
aught	-1822
ungai	-1823
▁fish	-1824
▁memp	-1825
▁tapi	-1826
anding	-1827
embuny	-1828
ingung	-1829
▁Could	-1830
▁berat	-1831
▁dekat	-1832
▁light	-1833
▁ready	-1834
▁these	-1835
▁thing	-1836
enarnya	-1837
satunya	-1838
▁almost	-1839
▁family	-1840
▁person	-1841
▁bahagia	-1842
▁berubah	-1843
▁married	-1844
▁menarik	-1845
▁padanya	-1846
▁Sekarang	-1847
▁bertanya	-1848
▁biasanya	-1849
▁terakhir	-1850
▁yourself	-1851
▁important	-1852
▁menelepon	-1853
ax	-1854
be	-1855
aba	-1856
ign	-1857
ius	-1858
mas	-1859
▁Al	-1860
▁Ok	-1861
▁On	-1862
▁op	-1863
ared	-1864
ates	-1865
hati	-1866
sive	-1867
▁Tok	-1868
▁adv	-1869
▁ist	-1870
▁ped	-1871
▁pro	-1872
▁sar	-1873
anjut	-1874
canda	-1875
ustom	-1876
▁Give	-1877
▁Jika	-1878
▁adik	-1879
▁cook	-1880
▁doll	-1881
▁enam	-1882
▁hurt	-1883
▁kata	-1884
▁mean	-1885
▁near	-1886
▁Which	-1887
▁angry	-1888
▁kelas	-1889
▁Thanks	-1890
▁diffic	-1891
▁Amerika	-1892
▁Silakan	-1893
▁arrived	-1894
▁getting	-1895
▁membant	-1896
▁reading	-1897
▁talking	-1898
▁Japanese	-1899
▁sebelumnya	-1900
▁mendengarkan	-1901
ds	-1902
ium	-1903
▁ku	-1904
abuk	-1905
alth	-1906
ator	-1907
erah	-1908
fast	-1909
onth	-1910
ulah	-1911
uluh	-1912
▁Air	-1913
▁Ter	-1914
▁far	-1915
▁ret	-1916
▁run	-1917
▁six	-1918
ident	-1919
ollow	-1920
▁awal	-1921
▁berj	-1922
▁else	-1923
▁head	-1924
▁high	-1925
▁kant	-1926
▁knew	-1927
▁pict	-1928
▁wind	-1929
▁Bukan	-1930
▁cinta	-1931
▁diper	-1932
▁front	-1933
▁lahir	-1934
▁month	-1935
▁place	-1936
▁putih	-1937
▁closed	-1938
▁jangan	-1939
▁lantai	-1940
▁setelah	-1941
▁working	-1942
▁mengajar	-1943
▁dengannya	-1944
▁memberikan	-1945
▁pertanyaan	-1946
3.	-1947
gn	-1948
agu	-1949
ept	-1950
oad	-1951
uci	-1952
unk	-1953
▁Ap	-1954
geri	-1955
pect	-1956
utan	-1957
▁All	-1958
▁emp	-1959
▁inv	-1960
▁lar	-1961
▁neg	-1962
▁nya	-1963
▁pes	-1964
jakan	-1965
osong	-1966
▁born	-1967
▁comm	-1968
▁idea	-1969
▁mind	-1970
▁mine	-1971
▁wine	-1972
▁wish	-1973
aiknya	-1974
enakan	-1975
orrect	-1976
▁Seper	-1977
▁being	-1978
▁hours	-1979
▁lelah	-1980
▁menja	-1981
▁mudah	-1982
▁party	-1983
▁pohon	-1984
▁river	-1985
▁small	-1986
▁tetap	-1987
▁white	-1988
abiskan	-1989
▁killed	-1990
▁matter	-1991
▁negeri	-1992
▁things	-1993
▁Selamat	-1994
▁telepon	-1995
▁mengenal	-1996
▁tertarik	-1997
▁breakfast	-1998
▁kesalahan	-1999
▁membuatku	-2000
▁seseorang	-2001
▁mengetahui	-2002
fa	-2003
sa	-2004
zy	-2005
bat	-2006
irt	-2007
▁Sh	-2008
▁es	-2009
▁kr	-2010
asan	-2011
ayar	-2012
reet	-2013
▁Ker	-2014
▁Sen	-2015
▁Set	-2016
▁blu	-2017
▁dik	-2018
▁eas	-2019
▁ent	-2020
▁son	-2021
▁vis	-2022
usaha	-2023
▁fell	-2024
▁ikan	-2025
▁keep	-2026
▁milk	-2027
▁rice	-2028
▁tree	-2029
▁build	-2030
▁buruk	-2031
▁jatuh	-2032
▁lihat	-2033
▁nanti	-2034
▁terus	-2035
▁pertama	-2036
▁sepuluh	-2037
▁bercanda	-2038
▁menerima	-2039
▁students	-2040
▁difficult	-2041
▁sendirian	-2042
▁girlfriend	-2043
ze	-2044
aja	-2045
ark	-2046
ier	-2047
inc	-2048
kat	-2049
pit	-2050
ason	-2051
ding	-2052
land	-2053
used	-2054
▁Men	-2055
▁bab	-2056
▁cap	-2057
▁few	-2058
▁kun	-2059
▁pis	-2060
▁pre	-2061
▁tol	-2062
ingga	-2063
ocked	-2064
warna	-2065
▁aneh	-2066
▁fast	-2067
▁gila	-2068
▁menj	-2069
▁snow	-2070
▁terh	-2071
urutmu	-2072
▁apple	-2073
▁grand	-2074
▁indah	-2075
▁mahal	-2076
▁movie	-2077
▁sorry	-2078
▁tenis	-2079
▁truth	-2080
▁while	-2081
eberapa	-2082
ountain	-2083
pensive	-2084
▁follow	-2085
▁kosong	-2086
▁longer	-2087
▁street	-2088
▁trying	-2089
▁berlari	-2090
▁shouldn	-2091
▁smoking	-2092
▁berhasil	-2093
▁berusaha	-2094
▁berwarna	-2095
▁meminjam	-2096
▁pintunya	-2097
▁mempercaya	-2098
▁sebenarnya	-2099
aud	-2100
tas	-2101
▁um	-2102
akes	-2103
arap	-2104
atur	-2105
emud	-2106
ever	-2107
iasa	-2108
ikut	-2109
ised	-2110
ison	-2111
pris	-2112
▁Kan	-2113
▁Oct	-2114
▁Okt	-2115
▁bot	-2116
▁rul	-2117
▁win	-2118
adang	-2119
amaku	-2120
▁astr	-2121
▁cats	-2122
▁days	-2123
▁each	-2124
▁enak	-2125
▁flow	-2126
▁main	-2127
gether	-2128
▁These	-2129
▁bodoh	-2130
▁drive	-2131
▁drunk	-2132
▁later	-2133
▁mengi	-2134
▁until	-2135
▁write	-2136
▁Kanada	-2137
▁around	-2138
▁bicara	-2139
▁borrow	-2140
▁differ	-2141
▁hingga	-2142
▁inform	-2143
▁looked	-2144
▁sehari	-2145
▁tennis	-2146
unjukkan	-2147
▁October	-2148
▁Oktober	-2149
▁careful	-2150
▁sekitar	-2151
▁surpris	-2152
▁terbaik	-2153
▁terkenal	-2154
▁Everybody	-2155
▁berbahasa	-2156
▁mengingat	-2157
▁Sepertinya	-2158
▁menghabiskan	-2159
▁meninggalkan	-2160
ko	-2161
ied	-2162
oon	-2163
wab	-2164
wan	-2165
▁ak	-2166
▁fi	-2167
alas	-2168
anyi	-2169
ilet	-2170
ning	-2171
osan	-2172
ress	-2173
▁Hal	-2174
▁Her	-2175
▁cut	-2176
▁kul	-2177
▁rus	-2178
ently	-2179
intas	-2180
▁Some	-2181
▁Turn	-2182
▁Yang	-2183
▁blue	-2184
▁hate	-2185
▁heav	-2186
▁kira	-2187
▁park	-2188
▁sent	-2189
imbang	-2190
▁benci	-2191
▁floor	-2192
▁glass	-2193
▁kabar	-2194
▁lived	-2195
▁mabuk	-2196
▁pakai	-2197
▁paper	-2198
▁those	-2199
▁times	-2200
▁works	-2201
elakaan	-2202
▁Monday	-2203
▁berdua	-2204
▁office	-2205
▁pretty	-2206
▁secara	-2207
▁summer	-2208
▁toilet	-2209
▁correct	-2210
▁mencint	-2211
▁mengunj	-2212
▁minutes	-2213
▁perfect	-2214
▁tertawa	-2215
▁mountain	-2216
▁together	-2217
▁berteriak	-2218
▁expensive	-2219
cl	-2220
so	-2221
ars	-2222
aul	-2223
oud	-2224
pun	-2225
str	-2226
ula	-2227
▁As	-2228
▁Pe	-2229
▁ek	-2230
ahun	-2231
ejut	-2232
engk	-2233
here	-2234
ided	-2235
oran	-2236
sion	-2237
tain	-2238
uruh	-2239
▁Ayo	-2240
▁beh	-2241
▁gel	-2242
▁hob	-2243
▁seg	-2244
▁top	-2245
▁war	-2246
ambar	-2247
eluar	-2248
ivers	-2249
▁Come	-2250
▁Take	-2251
▁appl	-2252
▁desk	-2253
▁kept	-2254
▁kiss	-2255
▁most	-2256
▁naik	-2257
▁news	-2258
▁prom	-2259
▁toko	-2260
alikan	-2261
arakan	-2262
▁Mobil	-2263
▁Senin	-2264
▁clean	-2265
▁eight	-2266
▁kakak	-2267
▁loves	-2268
▁minta	-2269
▁rapat	-2270
▁since	-2271
emuanya	-2272
▁called	-2273
▁gunung	-2274
▁health	-2275
▁peduli	-2276
▁reason	-2277
▁sungai	-2278
▁accident	-2279
▁sepanjang	-2280
▁disappoint	-2281
▁mengenakan	-2282
▁memberitahu	-2283
▁mendapatkan	-2284
▁3	-2285
30.	-2286
eum	-2287
ges	-2288
ina	-2289
kus	-2290
ogi	-2291
ole	-2292
ors	-2293
rip	-2294
▁To	-2295
▁em	-2296
asia	-2297
ayan	-2298
epas	-2299
ming	-2300
ukis	-2301
ular	-2302
▁Get	-2303
▁abs	-2304
▁bor	-2305
▁cam	-2306
▁dih	-2307
▁hid	-2308
▁hum	-2309
▁rep	-2310
ajari	-2311
anger	-2312
ither	-2313
ition	-2314
▁dark	-2315
▁gone	-2316
▁jadi	-2317
▁maaf	-2318
▁mand	-2319
▁once	-2320
▁shop	-2321
▁sugg	-2322
▁susu	-2323
▁terd	-2324
alanya	-2325
anggil	-2326
asaran	-2327
▁Lihat	-2328
▁Tokyo	-2329
▁agree	-2330
▁chair	-2331
▁empty	-2332
▁kapan	-2333
▁keber	-2334
▁pesta	-2335
▁shoes	-2336
▁Americ	-2337
▁Anjing	-2338
▁Kucing	-2339
▁caught	-2340
▁danger	-2341
▁famous	-2342
▁mengec	-2343
▁rambut	-2344
▁tolong	-2345
▁window	-2346
▁menjual	-2347
▁namanya	-2348
▁semalam	-2349
▁Semuanya	-2350
▁denganku	-2351
▁interesting	-2352
▁mengunjungi	-2353
▁memberitahuku	-2354
te	-2355
abr	-2356
als	-2357
led	-2358
olf	-2359
oto	-2360
▁Se	-2361
▁tu	-2362
acet	-2363
ache	-2364
adap	-2365
agai	-2366
aham	-2367
arah	-2368
etak	-2369
ical	-2370
inum	-2371
olar	-2372
onya	-2373
ouch	-2374
road	-2375
ukah	-2376
ukur	-2377
ured	-2378
▁Kur	-2379
▁Our	-2380
▁bet	-2381
▁dem	-2382
▁piz	-2383
▁tow	-2384
baiki	-2385
endel	-2386
icked	-2387
ihkan	-2388
▁Keep	-2389
▁agak	-2390
▁band	-2391
▁biru	-2392
▁bola	-2393
▁fire	-2394
▁leav	-2395
▁outs	-2396
▁past	-2397
▁penc	-2398
▁pria	-2399
▁saud	-2400
▁terj	-2401
▁word	-2402
intang	-2403
▁Maybe	-2404
▁bunga	-2405
▁color	-2406
▁cross	-2407
▁murah	-2408
▁older	-2409
▁pilih	-2410
▁smoke	-2411
▁tahan	-2412
▁taman	-2413
▁tangg	-2414
▁worry	-2415
anyakan	-2416
▁Ayahku	-2417
▁anyone	-2418
▁crying	-2419
▁having	-2420
▁kantor	-2421
▁negara	-2422
▁police	-2423
▁serius	-2424
▁wouldn	-2425
enangkan	-2426
▁berikan	-2427
▁country	-2428
▁favorit	-2429
▁membuka	-2430
▁mengapa	-2431
▁picture	-2432
▁sarapan	-2433
▁writing	-2434
▁younger	-2435
▁building	-2436
▁language	-2437
▁membayar	-2438
▁menjawab	-2439
▁terbiasa	-2440
▁interested	-2441
ani	-2442
ash	-2443
ced	-2444
elt	-2445
ike	-2446
ony	-2447
oup	-2448
▁Me	-2449
▁Ti	-2450
▁im	-2451
ault	-2452
idge	-2453
kuti	-2454
oice	-2455
otak	-2456
uhan	-2457
work	-2458
▁201	-2459
▁Mas	-2460
▁Ser	-2461
▁ate	-2462
▁bis	-2463
▁fix	-2464
▁flu	-2465
▁ice	-2466
▁law	-2467
▁num	-2468
▁pop	-2469
▁rah	-2470
▁rec	-2471
▁sub	-2472
▁sun	-2473
aging	-2474
ogram	-2475
ologi	-2476
▁Jack	-2477
▁Look	-2478
▁Tell	-2479
▁also	-2480
▁beli	-2481
▁buah	-2482
▁expl	-2483
▁fall	-2484
▁free	-2485
▁glad	-2486
▁rece	-2487
▁road	-2488
▁song	-2489
icious	-2490
▁Whose	-2491
▁alive	-2492
▁makes	-2493
▁mampu	-2494
▁plast	-2495
▁sejak	-2496
▁teach	-2497
▁tutup	-2498
eberang	-2499
entikan	-2500
▁Canadi	-2501
▁asleep	-2502
▁barang	-2503
▁coming	-2504
▁jendel	-2505
▁kertas	-2506
▁menyad	-2507
▁museum	-2508
▁number	-2509
▁return	-2510
▁saling	-2511
▁secret	-2512
▁Jackson	-2513
▁berdiri	-2514
▁changed	-2515
▁delapan	-2516
▁dirinya	-2517
▁memasak	-2518
▁mistake	-2519
▁someone	-2520
▁terbuat	-2521
▁khawatir	-2522
▁mobilnya	-2523
▁sleeping	-2524
▁watching	-2525
▁kecelakaan	-2526
▁sepertinya	-2527
▁menyeberang	-2528
oy	-2529
aat	-2530
inu	-2531
red	-2532
unc	-2533
▁Ex	-2534
adis	-2535
anji	-2536
aris	-2537
awar	-2538
cuse	-2539
ergi	-2540
oken	-2541
ross	-2542
▁add	-2543
▁art	-2544
▁bit	-2545
▁dig	-2546
▁hat	-2547
▁ref	-2548
▁reg	-2549
▁sil	-2550
▁sol	-2551
▁tax	-2552
▁thr	-2553
▁tuj	-2554
▁wom	-2555
ahaya	-2556
ampak	-2557
ancar	-2558
angku	-2559
apkan	-2560
emudi	-2561
engah	-2562
sible	-2563
urung	-2564
where	-2565
▁Good	-2566
▁Pada	-2567
▁Saat	-2568
▁easy	-2569
▁felt	-2570
▁hati	-2571
▁kaki	-2572
▁kuat	-2573
▁lima	-2574
▁pres	-2575
▁quit	-2576
▁sofa	-2577
▁wall	-2578
asakan	-2579
untung	-2580
▁begin	-2581
▁belas	-2582
▁close	-2583
▁dream	-2584
▁fault	-2585
▁great	-2586
▁hitam	-2587
▁istri	-2588
▁memel	-2589
▁salju	-2590
▁thank	-2591
▁Bangun	-2592
▁Gunung	-2593
▁camera	-2594
▁kenapa	-2595
▁living	-2596
▁membel	-2597
▁menuju	-2598
▁sepatu	-2599
▁turned	-2600
▁Berikan	-2601
▁bantuan	-2602
▁dimulai	-2603
▁memutus	-2604
▁mencium	-2605
▁outside	-2606
▁suggest	-2607
▁weather	-2608
▁confused	-2609
▁homework	-2610
▁inginkan	-2611
▁pendapat	-2612
▁speaking	-2613
▁swimming	-2614
▁televisi	-2615
▁terkejut	-2616
▁ketimbang	-2617
▁penasaran	-2618
za	-2619
000	-2620
ead	-2621
gel	-2622
ime	-2623
oot	-2624
oti	-2625
uji	-2626
uma	-2627
ush	-2628
▁Ak	-2629
▁cu	-2630
akar	-2631
ener	-2632
enty	-2633
ilty	-2634
itch	-2635
iter	-2636
ment	-2637
olak	-2638
ries	-2639
upid	-2640
urna	-2641
▁Ind	-2642
▁Jam	-2643
▁Kak	-2644
▁Ket	-2645
▁Mat	-2646
▁egg	-2647
▁end	-2648
▁exc	-2649
▁kal	-2650
▁mom	-2651
▁sad	-2652
▁suc	-2653
▁swe	-2654
▁ton	-2655
▁yen	-2656
ahami	-2657
ately	-2658
embak	-2659
enyum	-2660
iling	-2661
itten	-2662
lakan	-2663
▁Bisa	-2664
▁Ever	-2665
▁Stop	-2666
▁baca	-2667
▁berm	-2668
▁golf	-2669
▁nice	-2670
▁perm	-2671
▁sell	-2672
▁semp	-2673
▁situ	-2674
acetan	-2675
alaman	-2676
angkap	-2677
asinya	-2678
ention	-2679
etanya	-2680
▁began	-2681
▁biasa	-2682
▁dolar	-2683
▁hobby	-2684
▁knife	-2685
▁kotak	-2686
▁mandi	-2687
▁pisau	-2688
▁sound	-2689
▁store	-2690
arankan	-2691
ematika	-2692
▁Excuse	-2693
▁abroad	-2694
▁across	-2695
▁daging	-2696
▁driver	-2697
▁either	-2698
▁guilty	-2699
▁guitar	-2700
▁pinjam	-2701
▁second	-2702
▁stupid	-2703
▁thirty	-2704
▁Biarkan	-2705
▁Everest	-2706
▁Kemarin	-2707
▁airport	-2708
▁ketahui	-2709
▁kidding	-2710
▁manusia	-2711
▁menungg	-2712
▁saudara	-2713
▁sebagai	-2714
▁terluka	-2715
▁tonight	-2716
▁berencana	-2717
▁different	-2718
▁dilakukan	-2719
▁languages	-2720
▁menyadari	-2721
▁membiarkan	-2722
▁memutuskan	-2723
▁mengerjakan	-2724
pt	-2725
ago	-2726
ats	-2727
dai	-2728
erv	-2729
hap	-2730
kun	-2731
res	-2732
umi	-2733
▁Af	-2734
▁Am	-2735
▁Br	-2736
▁So	-2737
acam	-2738
cewa	-2739
ebak	-2740
gged	-2741
irim	-2742
itas	-2743
rell	-2744
ugas	-2745
▁Any	-2746
▁Bes	-2747
▁New	-2748
▁Not	-2749
▁arm	-2750
▁hor	-2751
▁ill	-2752
▁jum	-2753
▁lie	-2754
▁tas	-2755
▁tea	-2756
▁umb	-2757
actly	-2758
alkan	-2759
amamu	-2760
ating	-2761
clock	-2762
eared	-2763
ouble	-2764
▁Just	-2765
▁beer	-2766
▁buta	-2767
▁cuma	-2768
▁face	-2769
▁gigi	-2770
▁lagu	-2771
▁lose	-2772
▁mata	-2773
▁nasi	-2774
▁pemb	-2775
▁penj	-2776
▁peny	-2777
▁rest	-2778
▁roti	-2779
▁sign	-2780
abisan	-2781
endara	-2782
▁2013.	-2783
▁Hanya	-2784
▁death	-2785
▁gelap	-2786
▁gitar	-2787
▁heavy	-2788
▁jelas	-2789
▁kerja	-2790
▁kursi	-2791
▁lying	-2792
▁rules	-2793
▁sehat	-2794
▁spend	-2795
▁stand	-2796
▁tulis	-2797
▁visit	-2798
▁warna	-2799
omputer	-2800
ukainya	-2801
▁Pernah	-2802
▁Sayang	-2803
▁aftern	-2804
▁apples	-2805
▁become	-2806
▁gambar	-2807
▁kecewa	-2808
▁kesuka	-2809
▁needed	-2810
▁Ruangan	-2811
▁Stasiun	-2812
▁ayahnya	-2813
▁bintang	-2814
▁complet	-2815
▁exactly	-2816
▁membawa	-2817
▁menolak	-2818
▁menurun	-2819
▁pelajar	-2820
▁rahasia	-2821
▁rumahku	-2822
▁sebelah	-2823
▁tanggal	-2824
▁temanku	-2825
▁terbuka	-2826
▁umbrell	-2827
▁wearing	-2828
▁Bukankah	-2829
▁astronom	-2830
▁decision	-2831
▁drinking	-2832
▁everyone	-2833
▁kepadamu	-2834
▁menyerah	-2835
▁painting	-2836
▁sempurna	-2837
▁terhadap	-2838
▁Sebaiknya	-2839
▁kehabisan	-2840
▁melihatmu	-2841
▁membuatmu	-2842
▁mengikuti	-2843
▁questions	-2844
▁surprised	-2845
▁tersenyum	-2846
▁television	-2847
▁menyukainya	-2848
▁disappointed	-2849
bol	-2850
ikm	-2851
ilt	-2852
noc	-2853
ots	-2854
tar	-2855
usi	-2856
▁Cl	-2857
▁Le	-2858
▁pi	-2859
alik	-2860
apur	-2861
ball	-2862
enis	-2863
ense	-2864
give	-2865
ones	-2866
razy	-2867
ropa	-2868
▁Bel	-2869
▁Eur	-2870
▁Ibu	-2871
▁Ked	-2872
▁Mau	-2873
▁Pol	-2874
▁Tak	-2875
▁adm	-2876
▁ant	-2877
▁bon	-2878
▁dij	-2879
▁fis	-2880
▁ibu	-2881
▁lel	-2882
▁med	-2883
▁pur	-2884
▁tem	-2885
▁vol	-2886
angka	-2887
indah	-2888
iness	-2889
ondon	-2890
othes	-2891
unyai	-2892
▁Wait	-2893
▁arah	-2894
▁baby	-2895
▁bath	-2896
▁buat	-2897
▁cars	-2898
▁cons	-2899
▁diam	-2900
▁krim	-2901
▁luck	-2902
▁malu	-2903
▁masa	-2904
▁pers	-2905
▁samp	-2906
ancing	-2907
awakan	-2908
inding	-2909
nocent	-2910
▁Eropa	-2911
▁Ibuku	-2912
▁beras	-2913
▁comes	-2914
▁crazy	-2915
▁hurry	-2916
▁keada	-2917
▁memat	-2918
▁pizza	-2919
▁plane	-2920
▁sepak	-2921
▁short	-2922
▁story	-2923
▁tujuh	-2924
▁Europe	-2925
▁Ketika	-2926
▁London	-2927
▁advice	-2928
▁behind	-2929
▁custom	-2930
▁hangat	-2931
▁lintas	-2932
▁mengin	-2933
▁planet	-2934
▁polisi	-2935
▁scared	-2936
▁strong	-2937
▁taller	-2938
ingungan	-2939
▁America	-2940
▁berbeda	-2941
▁certain	-2942
▁leaving	-2943
▁memilih	-2944
▁mencuri	-2945
▁mengant	-2946
▁menutup	-2947
▁panjang	-2948
▁serious	-2949
▁Beberapa	-2950
▁harganya	-2951
▁innocent	-2952
▁kepadaku	-2953
▁learning	-2954
▁pikirkan	-2955
▁tertidur	-2956
▁umbrella	-2957
▁afternoon	-2958
▁boyfriend	-2959
▁dangerous	-2960
▁kemacetan	-2961
▁mempunyai	-2962
▁kebingungan	-2963
▁menyenangkan	-2964
eg	-2965
aid	-2966
elc	-2967
eph	-2968
erm	-2969
ial	-2970
ket	-2971
ota	-2972
sil	-2973
ucu	-2974
usb	-2975
way	-2976
▁10	-2977
▁Fr	-2978
▁Ma	-2979
▁ng	-2980
▁sy	-2981
▁ve	-2982
awan	-2983
ebab	-2984
esar	-2985
haps	-2986
ices	-2987
ikat	-2988
imes	-2989
impi	-2990
iswa	-2991
less	-2992
olen	-2993
ower	-2994
▁Mus	-2995
▁One	-2996
▁Put	-2997
▁act	-2998
▁bay	-2999
▁cup	-3000
▁dad	-3001
▁gag	-3002
▁gun	-3003
▁hos	-3004
▁jer	-3005
▁lay	-3006
▁mes	-3007
▁tau	-3008
▁teh	-3009
▁tep	-3010
anita	-3011
ative	-3012
ormal	-3013
pital	-3014
▁Dari	-3015
▁Fuji	-3016
▁Here	-3017
▁Para	-3018
▁Pint	-3019
▁agar	-3020
▁anim	-3021
▁bern	-3022
▁buka	-3023
▁ekor	-3024
▁form	-3025
▁guys	-3026
▁husb	-3027
▁ikut	-3028
▁lake	-3029
▁lied	-3030
▁rich	-3031
▁team	-3032
▁terp	-3033
▁trip	-3034
▁vide	-3035
ainkan	-3036
antung	-3037
illion	-3038
sihkan	-3039
ubungi	-3040
undang	-3041
ungnya	-3042
utusan	-3043
▁Makan	-3044
▁Today	-3045
▁badan	-3046
▁blood	-3047
▁bread	-3048
▁broke	-3049
▁cheap	-3050
▁fight	-3051
▁guess	-3052
▁hadir	-3053
▁kedua	-3054
▁order	-3055
▁paham	-3056
▁quite	-3057
▁sedih	-3058
▁shirt	-3059
▁tuaku	-3060
▁uncle	-3061
▁veget	-3062
ampunya	-3063
tionary	-3064
▁Banyak	-3065
▁dengar	-3066
▁expect	-3067
▁finish	-3068
▁kepala	-3069
▁langit	-3070
▁menari	-3071
▁mengel	-3072
▁myself	-3073
▁opened	-3074
▁pandai	-3075
▁pencil	-3076
▁prison	-3077
▁saying	-3078
▁stayed	-3079
▁stolen	-3080
▁thinks	-3081
ometimes	-3082
▁Rumahku	-3083
▁clothes	-3084
▁contact	-3085
▁decided	-3086
▁dollars	-3087
▁husband	-3088
▁mencuci	-3089
▁pesawat	-3090
▁raining	-3091
▁rencana	-3092
▁selamat	-3093
▁telling	-3094
▁through	-3095
▁trouble	-3096
▁bukanlah	-3097
▁computer	-3098
▁hospital	-3099
▁komputer	-3100
▁menolong	-3101
▁tanganmu	-3102
embunyikan	-3103
▁berbahaya	-3104
▁listening	-3105
▁memancing	-3106
▁dictionary	-3107
▁membantumu	-3108
▁menunjukkan	-3109
are	-3110
den	-3111
eka	-3112
eks	-3113
iet	-3114
ili	-3115
jak	-3116
joy	-3117
kas	-3118
net	-3119
rol	-3120
sud	-3121
▁pu	-3122
ahat	-3123
ajah	-3124
amed	-3125
ames	-3126
arth	-3127
artu	-3128
ased	-3129
buku	-3130
esan	-3131
eter	-3132
fort	-3133
ider	-3134
ilan	-3135
ject	-3136
kata	-3137
uali	-3138
urus	-3139
▁Ang	-3140
▁Atl	-3141
▁Kam	-3142
▁ass	-3143
▁cur	-3144
▁eye	-3145
▁fly	-3146
▁gem	-3147
▁kas	-3148
▁kol	-3149
▁ski	-3150
ement	-3151
inion	-3152
lukan	-3153
nited	-3154
uhnya	-3155
▁Beri	-3156
▁Perm	-3157
▁Pert	-3158
▁Tadi	-3159
▁bird	-3160
▁boss	-3161
▁fine	-3162
▁five	-3163
▁gets	-3164
▁goes	-3165
▁hist	-3166
▁istr	-3167
▁kaya	-3168
▁math	-3169
▁ment	-3170
▁perb	-3171
▁real	-3172
▁ring	-3173
▁seat	-3174
▁semb	-3175
▁slow	-3176
▁soal	-3177
▁sold	-3178
▁taxi	-3179
▁terg	-3180
▁town	-3181
▁umum	-3182
▁wash	-3183
asiswa	-3184
ations	-3185
elcome	-3186
ewakan	-3187
nyanyi	-3188
▁Besok	-3189
▁allow	-3190
▁ambil	-3191
▁basah	-3192
▁belak	-3193
▁black	-3194
▁bring	-3195
▁bunuh	-3196
▁colle	-3197
▁danau	-3198
▁darah	-3199
▁exper	-3200
▁gadis	-3201
▁garam	-3202
▁large	-3203
▁liked	-3204
▁mengk	-3205
▁taksi	-3206
▁telur	-3207
▁touch	-3208
▁trans	-3209
▁yours	-3210
elajari	-3211
embunyi	-3212
indukan	-3213
ujannya	-3214
▁Itulah	-3215
▁Maukah	-3216
▁Minggu	-3217
▁Tunggu	-3218
▁alasan	-3219
▁island	-3220
▁joking	-3221
▁kurang	-3222
▁lanjut	-3223
▁maksud	-3224
▁memang	-3225
▁normal	-3226
▁pantai	-3227
▁passed	-3228
▁pintar	-3229
▁played	-3230
▁rather	-3231
▁seemed	-3232
▁speaks	-3233
ungkinan	-3234
▁Pekerja	-3235
▁anybody	-3236
▁caranya	-3237
▁dimakan	-3238
▁explain	-3239
▁fishing	-3240
▁keadaan	-3241
▁laughed	-3242
▁memeluk	-3243
▁mobilku	-3244
▁opinion	-3245
▁pacarku	-3246
▁semakin	-3247
ihatannya	-3248
▁Canadian	-3249
▁memahami	-3250
▁menginap	-3251
▁Menurutmu	-3252
▁Pernahkah	-3253
▁Seseorang	-3254
▁kulakukan	-3255
▁mengingin	-3256
▁Everything	-3257
▁matematika	-3258
▁merindukan	-3259
▁mempercayai	-3260
nt	-3261
aru	-3262
gar	-3263
ire	-3264
lak	-3265
mur	-3266
ode	-3267
oin	-3268
pon	-3269
rew	-3270
tif	-3271
▁PR	-3272
▁ev	-3273
▁hu	-3274
▁id	-3275
▁vi	-3276
airs	-3277
atif	-3278
edit	-3279
iket	-3280
irip	-3281
ived	-3282
lept	-3283
omor	-3284
oper	-3285
pust	-3286
rary	-3287
sama	-3288
sung	-3289
ucon	-3290
ujur	-3291
ulus	-3292
▁Hob	-3293
▁cok	-3294
▁ign	-3295
▁jus	-3296
▁kub	-3297
▁lem	-3298
▁rid	-3299
▁sky	-3300
▁tre	-3301
▁vac	-3302
arena	-3303
atuhi	-3304
edung	-3305
itahu	-3306
ujian	-3307
urkan	-3308
▁Adik	-3309
▁Akan	-3310
▁Many	-3311
▁berf	-3312
▁bike	-3313
▁bott	-3314
▁cake	-3315
▁conv	-3316
▁cost	-3317
▁cour	-3318
▁dogs	-3319
▁exam	-3320
▁flag	-3321
▁fore	-3322
▁game	-3323
▁gold	-3324
▁joke	-3325
▁paid	-3326
▁prof	-3327
▁salt	-3328
▁shot	-3329
▁shut	-3330
▁such	-3331
▁then	-3332
akutan	-3333
aturan	-3334
endera	-3335
father	-3336
ikmati	-3337
obanya	-3338
ukisan	-3339
▁Akhir	-3340
▁beach	-3341
▁catur	-3342
▁check	-3343
▁chess	-3344
▁cuaca	-3345
▁dapur	-3346
▁jeruk	-3347
▁juice	-3348
▁kamus	-3349
▁kartu	-3350
▁kenal	-3351
▁kunci	-3352
▁mawar	-3353
▁mener	-3354
▁mirip	-3355
▁newsp	-3356
▁penuh	-3357
▁point	-3358
▁proud	-3359
▁slept	-3360
▁video	-3361
▁woman	-3362
antikan	-3363
ucapkan	-3364
▁Airnya	-3365
▁Setiap	-3366
▁adikku	-3367
▁arrive	-3368
▁ayahku	-3369
▁bahkan	-3370
▁bangga	-3371
▁bersih	-3372
▁burung	-3373
▁cerita	-3374
▁dirimu	-3375
▁ibunya	-3376
▁jarang	-3377
▁kamera	-3378
▁locked	-3379
▁memaaf	-3380
▁memint	-3381
▁mengal	-3382
▁movies	-3383
▁payung	-3384
▁pemain	-3385
▁pensil	-3386
▁pindah	-3387
▁scream	-3388
▁strang	-3389
▁wanita	-3390
inggalan	-3391
▁Masalah	-3392
▁Permisi	-3393
▁address	-3394
▁apologi	-3395
▁bandara	-3396
▁berasal	-3397
▁brought	-3398
▁feeling	-3399
▁flowers	-3400
▁forgive	-3401
▁helping	-3402
▁jawaban	-3403
▁kecuali	-3404
▁kehidup	-3405
▁library	-3406
▁memikir	-3407
▁mengaku	-3408
▁mengira	-3409
▁million	-3410
▁pakaian	-3411
▁pilihan	-3412
▁present	-3413
▁program	-3414
▁stopped	-3415
▁univers	-3416
▁untukmu	-3417
▁bathroom	-3418
▁berharap	-3419
▁memotong	-3420
▁mengirim	-3421
▁rumahnya	-3422
▁studying	-3423
▁bernyanyi	-3424
▁digunakan	-3425
▁ketakutan	-3426
▁mahasiswa	-3427
▁memainkan	-3428
▁mematikan	-3429
▁mengemudi	-3430
▁completely	-3431
▁membelikan	-3432
▁mencobanya	-3433
▁grandfather	-3434
▁mengecewakan	-3435
co	-3436
ey	-3437
of	-3438
▁z	-3439
ade	-3440
dra	-3441
ece	-3442
git	-3443
ned	-3444
oga	-3445
ord	-3446
owl	-3447
ton	-3448
uit	-3449
ume	-3450
wat	-3451
yam	-3452
zed	-3453
▁30	-3454
▁Mt	-3455
▁av	-3456
▁la	-3457
▁ny	-3458
▁ob	-3459
anam	-3460
ants	-3461
atih	-3462
atus	-3463
avel	-3464
enya	-3465
inal	-3466
laba	-3467
ocok	-3468
ocol	-3469
oses	-3470
outh	-3471
raga	-3472
ubur	-3473
▁Pul	-3474
▁Rem	-3475
▁Sun	-3476
▁age	-3477
▁api	-3478
▁bin	-3479
▁exp	-3480
▁inj	-3481
▁key	-3482
▁rel	-3483
▁wet	-3484
aftar	-3485
ahari	-3486
apped	-3487
aster	-3488
ended	-3489
erita	-3490
inese	-3491
kunci	-3492
ompet	-3493
onyol	-3494
ubung	-3495
vered	-3496
▁Berh	-3497
▁Will	-3498
▁bowl	-3499
▁caus	-3500
▁coba	-3501
▁deep	-3502
▁dest	-3503
▁eats	-3504
▁eggs	-3505
▁emas	-3506
▁fail	-3507
▁foot	-3508
▁para	-3509
▁prot	-3510
▁safe	-3511
▁seni	-3512
▁suit	-3513
▁susp	-3514
▁test	-3515
▁tick	-3516
amudra	-3517
esehat	-3518
irahat	-3519
itchen	-3520
kadang	-3521
mainan	-3522
ousand	-3523
senang	-3524
tinggi	-3525
uation	-3526
▁Jawab	-3527
▁Kotak	-3528
▁Lebih	-3529
▁Masih	-3530
▁Paris	-3531
▁asing	-3532
▁blind	-3533
▁bosan	-3534
▁capek	-3535
▁clear	-3536
▁daugh	-3537
▁dirty	-3538
▁hewan	-3539
▁least	-3540
▁nomor	-3541
▁offer	-3542
▁offic	-3543
▁reali	-3544
▁rusak	-3545
▁seped	-3546
▁seven	-3547
▁sport	-3548
▁tanah	-3549
▁ujian	-3550
▁weeks	-3551
atangan	-3552
embatan	-3553
empatan	-3554
jalanan	-3555
osankan	-3556
▁Karena	-3557
▁People	-3558
▁Sampai	-3559
▁Sunday	-3560
▁alamat	-3561
▁bridge	-3562
▁chance	-3563
▁cheese	-3564
▁chocol	-3565
▁dicuri	-3566
▁hilang	-3567
▁hugged	-3568
▁kissed	-3569
▁menyer	-3570
▁months	-3571
▁potong	-3572
▁travel	-3573
icarakan	-3574
▁Chinese	-3575
▁Perhaps	-3576
▁Tinggal	-3577
▁healthy	-3578
▁history	-3579
▁jendela	-3580
▁kakakku	-3581
▁kitchen	-3582
▁memerik	-3583
▁minuman	-3584
▁penjara	-3585
▁terbang	-3586
pustakaan	-3587
▁butuhkan	-3588
▁complain	-3589
▁daughter	-3590
▁membuang	-3591
▁menembak	-3592
▁mistakes	-3593
▁problems	-3594
▁radionya	-3595
▁seminggu	-3596
▁terbesar	-3597
▁vacation	-3598
▁waktunya	-3599
▁Keretanya	-3600
▁bersenang	-3601
▁beruntung	-3602
▁dibanding	-3603
▁favoritmu	-3604
▁keputusan	-3605
▁melupakan	-3606
▁mencintai	-3607
▁menurutmu	-3608
▁mengangkat	-3609
▁menghilang	-3610
▁perjalanan	-3611
▁information	-3612
▁keluarganya	-3613
▁ketinggalan	-3614
▁membersihkan	-3615
▁mencintainya	-3616
▁mendengarnya	-3617
▁menyembunyikan	-3618
hi	-3619
pu	-3620
yp	-3621
abb	-3622
ane	-3623
aut	-3624
ics	-3625
ift	-3626
ote	-3627
ric	-3628
ual	-3629
ubl	-3630
uki	-3631
ull	-3632
ura	-3633
▁Aw	-3634
▁Sw	-3635
▁il	-3636
▁ir	-3637
▁ok	-3638
▁po	-3639
▁ut	-3640
akut	-3641
alui	-3642
ceed	-3643
ches	-3644
cuss	-3645
eksi	-3646
iday	-3647
inci	-3648
ital	-3649
lier	-3650
oduc	-3651
ohol	-3652
olut	-3653
siap	-3654
urat	-3655
ures	-3656
▁Kel	-3657
▁Kup	-3658
▁Seh	-3659
▁Sej	-3660
▁Was	-3661
▁ban	-3662
▁bos	-3663
▁eng	-3664
▁gug	-3665
▁idi	-3666
▁its	-3667
▁kil	-3668
▁kom	-3669
▁lum	-3670
▁maj	-3671
▁mis	-3672
▁mul	-3673
▁ple	-3674
▁pri	-3675
▁tun	-3676
abrak	-3677
adiah	-3678
ambah	-3679
atkan	-3680
ebook	-3681
encan	-3682
ether	-3683
gigit	-3684
impan	-3685
iring	-3686
itted	-3687
lihat	-3688
teman	-3689
uring	-3690
▁Guru	-3691
▁Nama	-3692
▁Open	-3693
▁akal	-3694
▁bang	-3695
▁bear	-3696
▁burn	-3697
▁char	-3698
▁cond	-3699
▁coup	-3700
▁dead	-3701
▁dist	-3702
▁grow	-3703
▁gula	-3704
▁hall	-3705
▁hide	-3706
▁keju	-3707
▁kons	-3708
▁kont	-3709
▁kuda	-3710
▁laba	-3711
▁land	-3712
▁mask	-3713
▁meat	-3714
▁move	-3715
▁seng	-3716
▁skin	-3717
▁tast	-3718
▁umur	-3719
▁warm	-3720
▁warn	-3721
▁yell	-3722
acanya	-3723
adakan	-3724
aranya	-3725
arikan	-3726
ection	-3727
lakiku	-3728
ukanya	-3729
▁Ambil	-3730
▁Cepat	-3731
▁Hidup	-3732
▁Pintu	-3733
▁along	-3734
▁cream	-3735
▁dance	-3736
▁earth	-3737
▁enter	-3738
▁gagal	-3739
▁gelas	-3740
▁harga	-3741
▁ibuku	-3742
▁koran	-3743
▁kotor	-3744
▁lampu	-3745
▁lucky	-3746
▁melew	-3747
▁murid	-3748
▁quiet	-3749
▁smart	-3750
▁sukai	-3751
▁tooth	-3752
▁worth	-3753
ebabkan	-3754
▁Rambut	-3755
▁became	-3756
▁boring	-3757
▁broken	-3758
▁dariku	-3759
▁hadiah	-3760
▁helped	-3761
▁konyol	-3762
▁matamu	-3763
▁player	-3764
▁profes	-3765
▁sounds	-3766
▁tangga	-3767
▁ticket	-3768
▁transl	-3769
▁waited	-3770
ambahkan	-3771
▁Seorang	-3772
▁Someone	-3773
▁against	-3774
▁barunya	-3775
▁bingung	-3776
▁continu	-3777
▁diminum	-3778
▁discuss	-3779
▁earlier	-3780
▁foreign	-3781
▁injured	-3782
▁invited	-3783
▁kamarku	-3784
▁lumayan	-3785
▁menanam	-3786
▁plastik	-3787
▁sengaja	-3788
▁succeed	-3789
▁untukku	-3790
embalikan	-3791
▁akhirnya	-3792
▁berjanji	-3793
▁binatang	-3794
▁mengangg	-3795
▁mengubah	-3796
▁menjelas	-3797
▁menyalah	-3798
▁promised	-3799
▁standing	-3800
▁terkunci	-3801
▁Something	-3802
▁attention	-3803
▁chocolate	-3804
▁kehidupan	-3805
▁sebaiknya	-3806
▁segalanya	-3807
▁tertinggi	-3808
▁Seharusnya	-3809
▁kesempatan	-3810
▁kemungkinan	-3811
▁memperbaiki	-3812
▁pekerjaanmu	-3813
▁membicarakan	-3814
▁menginginkan	-3815
▁mengkhawatir	-3816
▁pekerjaannya	-3817
gs	-3818
ech	-3819
ern	-3820
fer	-3821
han	-3822
iko	-3823
its	-3824
jem	-3825
kop	-3826
rab	-3827
▁Bi	-3828
▁Es	-3829
▁Go	-3830
▁ud	-3831
,000	-3832
ains	-3833
anja	-3834
armu	-3835
elon	-3836
emen	-3837
eras	-3838
gest	-3839
imat	-3840
ince	-3841
oker	-3842
ongk	-3843
otor	-3844
quar	-3845
reci	-3846
rika	-3847
ujuk	-3848
▁For	-3849
▁Pas	-3850
▁Pem	-3851
▁See	-3852
▁akt	-3853
▁bau	-3854
▁beb	-3855
▁deb	-3856
▁dul	-3857
▁gas	-3858
▁jas	-3859
▁jut	-3860
▁kue	-3861
▁lip	-3862
▁tip	-3863
▁typ	-3864
arage	-3865
aring	-3866
arnya	-3867
ction	-3868
icago	-3869
ipped	-3870
isten	-3871
nyata	-3872
omach	-3873
onest	-3874
orong	-3875
oskop	-3876
otogr	-3877
ukkan	-3878
veral	-3879
▁Dulu	-3880
▁Hati	-3881
▁Jadi	-3882
▁Mars	-3883
▁Pria	-3884
▁Siap	-3885
▁Tiga	-3886
▁Wakt	-3887
▁York	-3888
▁agre	-3889
▁decl	-3890
▁fact	-3891
▁fool	-3892
▁four	-3893
▁hund	-3894
▁kids	-3895
▁mess	-3896
▁reli	-3897
▁repa	-3898
▁side	-3899
▁wood	-3900
akasih	-3901
asihat	-3902
esawat	-3903
nivers	-3904
ungguh	-3905
▁Alice	-3906
▁Close	-3907
▁Dapat	-3908
▁Harga	-3909
▁Leave	-3910
▁Rapat	-3911
▁Three	-3912
▁deser	-3913
▁empat	-3914
▁enjoy	-3915
▁funny	-3916
▁horse	-3917
▁kebun	-3918
▁known	-3919
▁lewat	-3920
▁lulus	-3921
▁medic	-3922
▁pekan	-3923
▁plant	-3924
▁plays	-3925
▁polit	-3926
▁popul	-3927
▁press	-3928
▁sepen	-3929
▁suara	-3930
▁sugar	-3931
▁tiket	-3932
▁voice	-3933
▁wrote	-3934
acamata	-3935
endarai	-3936
epaskan	-3937
hatikan	-3938
kusikan	-3939
masalah	-3940
usahaan	-3941
▁Dengan	-3942
▁Keluar	-3943
▁Polisi	-3944
▁accept	-3945
▁belong	-3946
▁bersel	-3947
▁choice	-3948
▁concer	-3949
▁daftar	-3950
▁during	-3951
▁garage	-3952
▁inside	-3953
▁lancar	-3954
▁mainan	-3955
▁melind	-3956
▁menemu	-3957
▁menyet	-3958
▁missed	-3959
▁orange	-3960
▁picked	-3961
▁result	-3962
▁speech	-3963
▁taking	-3964
▁thirst	-3965
▁Chicago	-3966
▁Indones	-3967
▁Samudra	-3968
▁allowed	-3969
▁anggota	-3970
▁appreci	-3971
▁berusia	-3972
▁capital	-3973
▁company	-3974
▁glasses	-3975
▁hundred	-3976
▁lelucon	-3977
▁liburan	-3978
▁melalui	-3979
▁mengand	-3980
▁milikku	-3981
▁rasanya	-3982
▁sejarah	-3983
▁several	-3984
▁stomach	-3985
▁strange	-3986
▁weekend	-3987
▁whether	-3988
▁Dapatkah	-3989
▁Seberapa	-3990
▁Sudahkah	-3991
▁Tomorrow	-3992
▁accustom	-3993
▁ambilkan	-3994
▁answered	-3995
▁belakang	-3996
▁bertahan	-3997
▁business	-3998
▁followed	-3999
▁keluarga	-4000
▁lampunya	-4001
▁langsung	-4002
▁melewati	-4003
▁nyalakan	-4004
▁received	-4005
▁returned	-4006
▁terjebak	-4007
▁tertutup	-4008
▁Pekerjaan	-4009
▁berterima	-4010
▁carefully	-4011
▁delicious	-4012
▁ditemukan	-4013
▁everybody	-4014
▁memanggil	-4015
▁mengalami	-4016
▁merupakan	-4017
▁situation	-4018
▁sometimes	-4019
▁membantuku	-4020
▁membuatnya	-4021
▁sepenuhnya	-4022
▁suspicious	-4023
▁disappeared	-4024
▁membosankan	-4025
▁mengendarai	-4026
▁mengucapkan	-4027
▁menyarankan	-4028
▁menyebabkan	-4029
,"	-4030
bo	-4031
oo	-4032
tu	-4033
Aku	-4034
aji	-4035
edi	-4036
erb	-4037
ged	-4038
iat	-4039
igh	-4040
ini	-4041
ird	-4042
jau	-4043
kum	-4044
oid	-4045
omb	-4046
pet	-4047
rat	-4048
top	-4049
uhi	-4050
una	-4051
yer	-4052
zin	-4053
▁Bl	-4054
▁Hi	-4055
▁Te	-4056
▁ra	-4057
ajak	-4058
anas	-4059
apas	-4060
atas	-4061
bung	-4062
cess	-4063
elat	-4064
ello	-4065
enci	-4066
enek	-4067
iled	-4068
inga	-4069
jaga	-4070
okes	-4071
olin	-4072
olog	-4073
omeb	-4074
oned	-4075
ored	-4076
ping	-4077
tery	-4078
ukum	-4079
uman	-4080
urig	-4081
ward	-4082
ween	-4083
▁Ist	-4084
▁Kep	-4085
▁Pel	-4086
▁Tel	-4087
▁ash	-4088
▁hel	-4089
▁hol	-4090
▁inc	-4091
▁jel	-4092
▁kay	-4093
▁lic	-4094
▁mon	-4095
▁pil	-4096
▁ram	-4097
▁raw	-4098
▁sab	-4099
▁sci	-4100
▁soc	-4101
ables	-4102
abrik	-4103
acara	-4104
anggu	-4105
arden	-4106
askan	-4107
ender	-4108
gerak	-4109
icide	-4110
innya	-4111
ities	-4112
melon	-4113
nikah	-4114
okter	-4115
ompat	-4116
riger	-4117
right	-4118
sibil	-4119
ungsi	-4120
▁Both	-4121
▁Buka	-4122
▁Cats	-4123
▁Cina	-4124
▁Even	-4125
▁Lang	-4126
▁Satu	-4127
▁Show	-4128
▁bayi	-4129
▁bill	-4130
▁bumi	-4131
▁cann	-4132
▁cari	-4133
▁coat	-4134
▁drop	-4135
▁ears	-4136
▁fing	-4137
▁full	-4138
▁grap	-4139
▁hold	-4140
▁join	-4141
▁kaus	-4142
▁keku	-4143
▁king	-4144
▁lazy	-4145
▁line	-4146
▁lock	-4147
▁mere	-4148
▁nine	-4149
▁purp	-4150
▁save	-4151
▁temp	-4152
▁teng	-4153
▁topi	-4154
▁usia	-4155
akaran	-4156
akibat	-4157
ampuan	-4158
engkar	-4159
estaur	-4160
indari	-4161
ingsan	-4162
ission	-4163
selves	-4164
ternet	-4165
▁After	-4166
▁Bunga	-4167
▁Hujan	-4168
▁Kakak	-4169
▁Kakek	-4170
▁Sorry	-4171
▁Terus	-4172
▁bebas	-4173
▁botol	-4174
▁built	-4175
▁const	-4176
▁demol	-4177
▁dress	-4178
▁fruit	-4179
▁green	-4180
▁hates	-4181
▁ibumu	-4182
▁jujur	-4183
▁layak	-4184
▁libur	-4185
▁mouth	-4186
▁moved	-4187
▁perut	-4188
▁posit	-4189
▁price	-4190
▁quick	-4191
▁roses	-4192
▁skirt	-4193
▁smile	-4194
▁stamp	-4195
▁stood	-4196
▁tanda	-4197
▁waste	-4198
artment	-4199
ecahkan	-4200
esarkan	-4201
lahraga	-4202
omebody	-4203
unately	-4204
▁Atlant	-4205
▁Burung	-4206
▁Hobiku	-4207
▁Kurasa	-4208
▁Sepeda	-4209
▁Tangan	-4210
▁alergi	-4211
▁apinya	-4212
▁bagiku	-4213
▁basket	-4214
▁butter	-4215
▁button	-4216
▁couple	-4217
▁dijual	-4218
▁dimana	-4219
▁experi	-4220
▁gloves	-4221
▁kemana	-4222
▁lawyer	-4223
▁making	-4224
▁mentah	-4225
▁nampak	-4226
▁nobody	-4227
▁nyaman	-4228
▁plenty	-4229
▁respon	-4230
▁showed	-4231
▁sleepy	-4232
▁teleph	-4233
▁terima	-4234
▁though	-4235
▁tombol	-4236
▁tuanya	-4237
▁tunggu	-4238
▁violin	-4239
▁walked	-4240
anjutnya	-4241
eluarkan	-4242
urigakan	-4243
▁Belajar	-4244
▁Pesawat	-4245
▁Setelah	-4246
▁anaknya	-4247
▁ashamed	-4248
▁berikut	-4249
▁biarkan	-4250
▁bioskop	-4251
▁cokelat	-4252
▁customs	-4253
▁dinding	-4254
▁driving	-4255
▁dulunya	-4256
▁happens	-4257
▁largest	-4258
▁learned	-4259
▁manakah	-4260
▁painted	-4261
▁pingsan	-4262
▁plastic	-4263
▁restaur	-4264
▁seluruh	-4265
▁sitting	-4266
▁tahunku	-4267
▁thirsty	-4268
▁visited	-4269
▁worried	-4270
rigerator	-4271
▁Internet	-4272
▁anywhere	-4273
▁berakhir	-4274
▁kamarnya	-4275
▁medicine	-4276
▁membujuk	-4277
▁menyakit	-4278
▁seharian	-4279
▁semangka	-4280
▁terbakar	-4281
▁anjingnya	-4282
▁bantuanmu	-4283
▁bicarakan	-4284
▁continued	-4285
▁kebakaran	-4286
▁menderita	-4287
▁merasakan	-4288
▁newspaper	-4289
▁pengacara	-4290
▁peraturan	-4291
▁permainan	-4292
▁Tinggalkan	-4293
▁accustomed	-4294
▁bertengkar	-4295
▁demolished	-4296
▁diperbaiki	-4297
▁memerlukan	-4298
▁watermelon	-4299
▁bersembunyi	-4300
▁mengenalnya	-4301
▁menghubungi	-4302
▁mencurigakan	-4303
▁menghentikan	-4304
▁perpustakaan	-4305
▁refrigerator	-4306
▁memberikannya	-4307
▁memberitahumu	-4308
▁memperhatikan	-4309
▁memberitahukan	-4310
2.	-4311
IM	-4312
TM	-4313
bt	-4314
dy	-4315
ov	-4316
ta	-4317
wr	-4318
adw	-4319
bye	-4320
cap	-4321
dir	-4322
dom	-4323
iny	-4324
las	-4325
mal	-4326
ril	-4327
ses	-4328
uff	-4329
urt	-4330
val	-4331
zen	-4332
▁En	-4333
▁Ky	-4334
▁Os	-4335
▁SM	-4336
▁Sm	-4337
▁Su	-4338
▁mi	-4339
ajam	-4340
ansa	-4341
arat	-4342
ecat	-4343
edul	-4344
ends	-4345
entr	-4346
erik	-4347
fied	-4348
fing	-4349
gian	-4350
hand	-4351
idat	-4352
ific	-4353
ighb	-4354
ilai	-4355
inux	-4356
itah	-4357
izin	-4358
kali	-4359
ntuk	-4360
oduk	-4361
orth	-4362
oubt	-4363
ters	-4364
tive	-4365
umur	-4366
unda	-4367
ungk	-4368
urry	-4369
uruk	-4370
usin	-4371
▁ATM	-4372
▁Add	-4373
▁God	-4374
▁Hai	-4375
▁Keb	-4376
▁Mem	-4377
▁Mer	-4378
▁Nat	-4379
▁Pen	-4380
▁SIM	-4381
▁Sal	-4382
▁Tet	-4383
▁cal	-4384
▁cel	-4385
▁dah	-4386
▁det	-4387
▁emb	-4388
▁fat	-4389
▁fut	-4390
▁guy	-4391
▁kup	-4392
▁kut	-4393
▁len	-4394
▁pet	-4395
▁rak	-4396
▁rib	-4397
▁rok	-4398
▁sea	-4399
▁sop	-4400
▁tal	-4401
▁teb	-4402
▁tes	-4403
▁toy	-4404
▁und	-4405
aling	-4406
angko	-4407
arian	-4408
buang	-4409
erman	-4410
incin	-4411
intah	-4412
omong	-4413
roach	-4414
siapa	-4415
tahun	-4416
ublic	-4417
udian	-4418
umkan	-4419
untah	-4420
vious	-4421
▁Baik	-4422
▁Didn	-4423
▁Film	-4424
▁Kore	-4425
▁Life	-4426
▁Meja	-4427
▁Most	-4428
▁Nasi	-4429
▁Read	-4430
▁Stay	-4431
▁aman	-4432
▁asal	-4433
▁batu	-4434
▁bigg	-4435
▁capa	-4436
▁cerd	-4437
▁deer	-4438
▁fill	-4439
▁gift	-4440
▁half	-4441
▁hang	-4442
▁ilmu	-4443
▁kaca	-4444
▁lend	-4445
▁lucu	-4446
▁maka	-4447
▁moon	-4448
▁muak	-4449
▁nerv	-4450
▁obat	-4451
▁pati	-4452
▁prop	-4453
▁quar	-4454
▁ragu	-4455
▁rasi	-4456
▁rusa	-4457
▁ship	-4458
▁size	-4459
▁sore	-4460
▁supp	-4461
▁tong	-4462
▁usah	-4463
▁vill	-4464
angkir	-4465
awaran	-4466
elahan	-4467
gabung	-4468
▁April	-4469
▁Duduk	-4470
▁Hurry	-4471
▁Linux	-4472
▁Pakai	-4473
▁Those	-4474
▁Tuhan	-4475
▁Tulis	-4476
▁Tutup	-4477
▁above	-4478
▁balik	-4479
▁biaya	-4480
▁blame	-4481
▁cards	-4482
▁catch	-4483
▁climb	-4484
▁cocok	-4485
▁doubt	-4486
▁dying	-4487
▁fired	-4488
▁gemuk	-4489
▁given	-4490
▁gugup	-4491
▁hurts	-4492
▁idiot	-4493
▁jenis	-4494
▁jumpa	-4495
▁kanan	-4496
▁kolam	-4497
▁menip	-4498
▁motor	-4499
▁parah	-4500
▁pengg	-4501
▁pesan	-4502
▁ramah	-4503
▁ruang	-4504
▁seber	-4505
▁sense	-4506
▁shout	-4507
▁solve	-4508
▁suatu	-4509
▁sushi	-4510
▁taste	-4511
▁terri	-4512
▁thick	-4513
▁tugas	-4514
▁weird	-4515
▁words	-4516
amatkan	-4517
artemen	-4518
etakkan	-4519
lakinya	-4520
malukan	-4521
uncinya	-4522
writing	-4523
▁Angkat	-4524
▁Hampir	-4525
▁States	-4526
▁Sungai	-4527
▁antara	-4528
▁attend	-4529
▁bagian	-4530
▁banget	-4531
▁beauty	-4532
▁berani	-4533
▁bitten	-4534
▁boneka	-4535
▁busnya	-4536
▁cannot	-4537
▁caused	-4538
▁common	-4539
▁dibaca	-4540
▁dibuat	-4541
▁diriku	-4542
▁drinks	-4543
▁easily	-4544
▁failed	-4545
▁flower	-4546
▁forced	-4547
▁future	-4548
▁garden	-4549
▁gedung	-4550
▁giving	-4551
▁hiding	-4552
▁honest	-4553
▁humili	-4554
▁kemari	-4555
▁kulkas	-4556
▁kuning	-4557
▁mengej	-4558
▁mening	-4559
▁minute	-4560
▁misses	-4561
▁moment	-4562
▁muntah	-4563
▁neighb	-4564
▁option	-4565
▁pendek	-4566
▁perasa	-4567
▁pisang	-4568
▁pulpen	-4569
▁religi	-4570
▁report	-4571
▁soccer	-4572
▁spider	-4573
▁stairs	-4574
▁talked	-4575
▁tampak	-4576
▁taught	-4577
▁temper	-4578
▁twenty	-4579
▁volume	-4580
▁worked	-4581
andangan	-4582
esehatan	-4583
fortable	-4584
itahukan	-4585
▁Makasih	-4586
▁Serikat	-4587
▁absolut	-4588
▁allergi	-4589
▁animals	-4590
▁berguna	-4591
▁berhati	-4592
▁between	-4593
▁bukunya	-4594
▁cooking	-4595
▁curious	-4596
▁ditutup	-4597
▁evening	-4598
▁factory	-4599
▁hidupku	-4600
▁kamarmu	-4601
▁license	-4602
▁lupakan	-4603
▁matanya	-4604
▁matikan	-4605
▁memesan	-4606
▁menghad	-4607
▁nervous	-4608
▁perbuat	-4609
▁pleased	-4610
▁promise	-4611
▁protect	-4612
▁rasakan	-4613
▁salahku	-4614
▁schedul	-4615
▁singing	-4616
▁slipped	-4617
▁studied	-4618
▁suicide	-4619
▁suspect	-4620
▁tallest	-4621
▁temanmu	-4622
▁terkena	-4623
▁uangnya	-4624
▁village	-4625
▁welcome	-4626
endalikan	-4627
▁Akhirnya	-4628
▁Duduklah	-4629
▁Hujannya	-4630
▁bangunan	-4631
▁bergerak	-4632
▁berteman	-4633
▁crossing	-4634
▁dibangun	-4635
▁football	-4636
▁istrinya	-4637
▁jembatan	-4638
▁kacamata	-4639
▁matahari	-4640
▁membenci	-4641
▁menabrak	-4642
▁mengeluh	-4643
▁menunjuk	-4644
▁perangko	-4645
▁pernikah	-4646
▁pictures	-4647
▁sarankan	-4648
▁sembilan	-4649
▁shopping	-4650
▁teaching	-4651
▁terdekat	-4652
▁thinking	-4653
▁Indonesia	-4654
▁Tambahkan	-4655
▁Yesterday	-4656
▁apologize	-4657
▁astronomi	-4658
▁astronomy	-4659
▁classroom	-4660
▁informasi	-4661
▁keberatan	-4662
▁kemampuan	-4663
▁kepalanya	-4664
▁memercaya	-4665
▁suggested	-4666
▁telephone	-4667
▁dibesarkan	-4668
▁jendelanya	-4669
▁kesukaanku	-4670
▁melindungi	-4671
▁memikirkan	-4672
▁menanyakan	-4673
▁mengundang	-4674
▁menunggumu	-4675
▁menurunkan	-4676
▁university	-4677
▁handwriting	-4678
▁menyalahkan	-4679
▁selanjutnya	-4680
▁dibandingkan	-4681
▁mengatakannya	-4682
▁mengembalikan	-4683
▁membutuhkannya	-4684
0.	-4685
ef	-4686
li	-4687
su	-4688
ts	-4689
vi	-4690
xy	-4691
▁'	-4692
▁?	-4693
aka	-4694
ale	-4695
awn	-4696
bey	-4697
cum	-4698
dle	-4699
ebr	-4700
eth	-4701
gan	-4702
gas	-4703
kip	-4704
lik	-4705
por	-4706
rik	-4707
set	-4708
sit	-4709
tem	-4710
uga	-4711
uhu	-4712
une	-4713
ute	-4714
xic	-4715
▁Ku	-4716
▁Ne	-4717
▁Oh	-4718
▁ed	-4719
▁gh	-4720
▁od	-4721
abtu	-4722
aced	-4723
aces	-4724
adai	-4725
aksa	-4726
aksi	-4727
angi	-4728
apal	-4729
appy	-4730
atah	-4731
atch	-4732
ayed	-4733
cean	-4734
corn	-4735
ears	-4736
ecut	-4737
edia	-4738
ened	-4739
esat	-4740
gaku	-4741
ifik	-4742
ilar	-4743
indu	-4744
ined	-4745
irst	-4746
isik	-4747
load	-4748
mana	-4749
ness	-4750
oboh	-4751
pura	-4752
rist	-4753
rots	-4754
teen	-4755
time	-4756
ulat	-4757
unci	-4758
urch	-4759
vers	-4760
▁Bea	-4761
▁Dil	-4762
▁Ing	-4763
▁Kec	-4764
▁Man	-4765
▁Now	-4766
▁Pak	-4767
▁Pet	-4768
▁Tim	-4769
▁aff	-4770
▁amb	-4771
▁bud	-4772
▁buk	-4773
▁cop	-4774
▁div	-4775
▁dut	-4776
▁gak	-4777
▁gor	-4778
▁ham	-4779
▁imm	-4780
▁kat	-4781
▁kej	-4782
▁kuk	-4783
▁map	-4784
▁pam	-4785
▁puc	-4786
▁shy	-4787
▁sim	-4788
anker	-4789
antal	-4790
arket	-4791
arung	-4792
astle	-4793
atasi	-4794
ellig	-4795
elnya	-4796
empar	-4797
enced	-4798
entuh	-4799
erjem	-4800
icken	-4801
ihara	-4802
illow	-4803
katan	-4804
lahan	-4805
lasik	-4806
onsel	-4807
owing	-4808
ubang	-4809
ulkan	-4810
ution	-4811
▁Asia	-4812
▁Bank	-4813
▁Buah	-4814
▁Call	-4815
▁Coba	-4816
▁Halo	-4817
▁Hold	-4818
▁Milk	-4819
▁Toko	-4820
▁Wake	-4821
▁area	-4822
▁ayam	-4823
▁babi	-4824
▁baju	-4825
▁ball	-4826
▁banj	-4827
▁buck	-4828
▁bulu	-4829
▁camp	-4830
▁case	-4831
▁dare	-4832
▁date	-4833
▁demi	-4834
▁desa	-4835
▁draw	-4836
▁dumb	-4837
▁grad	-4838
▁haus	-4839
▁held	-4840
▁kayu	-4841
▁kenc	-4842
▁keys	-4843
▁kuku	-4844
▁lemb	-4845
▁less	-4846
▁lift	-4847
▁mach	-4848
▁obey	-4849
▁oper	-4850
▁prep	-4851
▁ride	-4852
▁rock	-4853
▁rope	-4854
▁rule	-4855
▁rump	-4856
▁sand	-4857
▁self	-4858
▁shar	-4859
▁star	-4860
▁suam	-4861
▁suar	-4862
▁surr	-4863
▁tanp	-4864
▁tour	-4865
▁worn	-4866
ainted	-4867
angkan	-4868
angkuk	-4869
arinya	-4870
barang	-4871
elanja	-4872
entara	-4873
ildren	-4874
lintas	-4875
mother	-4876
ongkok	-4877
▁Bring	-4878
▁Cukai	-4879
▁First	-4880
▁Hello	-4881
▁Istri	-4882
▁Malam	-4883
▁Pulau	-4884
▁Sabtu	-4885
▁Satur	-4886
▁actor	-4887
▁airpl	-4888
▁awake	-4889
▁biola	-4890
▁bored	-4891
▁bubur	-4892
▁cerit	-4893
▁diber	-4894
▁disco	-4895
▁disel	-4896
▁docum	-4897
▁dozen	-4898
▁elect	-4899
▁escap	-4900
▁fixed	-4901
▁gener	-4902
▁ghost	-4903
▁hasil	-4904
▁heart	-4905
▁hijau	-4906
▁human	-4907
▁instr	-4908
▁jasmu	-4909
▁kalah	-4910
▁keeps	-4911
▁lapor	-4912
▁lepas	-4913
▁lower	-4914
▁malas	-4915
▁mesin	-4916
▁mulut	-4917
▁piece	-4918
▁pract	-4919
▁pulau	-4920
▁reach	-4921
▁rindu	-4922
▁round	-4923
▁saran	-4924
▁sight	-4925
▁smell	-4926
▁stick	-4927
▁stole	-4928
▁straw	-4929
▁suitc	-4930
▁susah	-4931
▁sweet	-4932
▁takes	-4933
▁udara	-4934
▁wears	-4935
▁which	-4936
▁whose	-4937
ematics	-4938
intaimu	-4939
pergian	-4940
rection	-4941
▁Adakah	-4942
▁Anyone	-4943
▁Dengar	-4944
▁Langit	-4945
▁Listen	-4946
▁Semoga	-4947
▁Senang	-4948
▁absent	-4949
▁agreed	-4950
▁akibat	-4951
▁animal	-4952
▁aturan	-4953
▁ayahmu	-4954
▁barumu	-4955
▁begins	-4956
▁berita	-4957
▁bigger	-4958
▁bohong	-4959
▁bosnya	-4960
▁bottle	-4961
▁breath	-4962
▁cancer	-4963
▁castle	-4964
▁cerdas	-4965
▁credit	-4966
▁decide	-4967
▁formul	-4968
▁grapes	-4969
▁kanker	-4970
▁kicked	-4971
▁klasik	-4972
▁lambat	-4973
▁laptop	-4974
▁lengan	-4975
▁lights	-4976
▁menipu	-4977
▁menyes	-4978
▁murder	-4979
▁namamu	-4980
▁perang	-4981
▁pillow	-4982
▁prefer	-4983
▁prices	-4984
▁public	-4985
▁rained	-4986
▁raised	-4987
▁remind	-4988
▁sampah	-4989
▁seldom	-4990
▁sentuh	-4991
▁sports	-4992
▁suffer	-4993
▁sweter	-4994
▁tenang	-4995
▁tengah	-4996
▁terasa	-4997
▁wallet	-4998
▁weight	-4999
▁winter	-5000
ancurkan	-5001
atangani	-5002
ayangkan	-5003
elligent	-5004
ermarket	-5005
lihatkan	-5006
sibility	-5007
▁Bendera	-5008
▁Kupikir	-5009
▁Lakukan	-5010
▁Menurut	-5011
▁advised	-5012
▁berbuat	-5013
▁chicken	-5014
▁covered	-5015
▁digigit	-5016
▁finally	-5017
▁forward	-5018
▁halaman	-5019
▁highest	-5020
▁ignored	-5021
▁kabarmu	-5022
▁letters	-5023
▁melukis	-5024
▁menakut	-5025
▁mendaki	-5026
▁mengund	-5027
▁merawat	-5028
▁milikmu	-5029
▁mobilmu	-5030
▁nasihat	-5031
▁nearest	-5032
▁panggil	-5033
▁perkata	-5034
▁pikiran	-5035
▁planted	-5036
▁similar	-5037
▁situasi	-5038
▁subject	-5039
▁success	-5040
▁sungguh	-5041
▁sweater	-5042
▁tawaran	-5043
▁teaches	-5044
▁written	-5045
▁Berhenti	-5046
▁Kuncinya	-5047
▁Lepaskan	-5048
▁Perancis	-5049
▁Rapatnya	-5050
▁Saturday	-5051
▁Siapakah	-5052
▁actually	-5053
▁allergic	-5054
▁berdansa	-5055
▁berharga	-5056
▁bermimpi	-5057
▁bertahun	-5058
▁borrowed	-5059
▁deserves	-5060
▁diadakan	-5061
▁fluently	-5062
▁friendly	-5063
▁laughing	-5064
▁memasuki	-5065
▁mencukur	-5066
▁menikahi	-5067
▁menyuruh	-5068
▁pacarnya	-5069
▁planning	-5070
▁possible	-5071
▁recently	-5072
▁repaired	-5073
▁setengah	-5074
▁terletak	-5075
▁tersesat	-5076
▁thirteen	-5077
▁thousand	-5078
▁whatever	-5079
engarannya	-5080
▁bergabung	-5081
▁classical	-5082
▁condition	-5083
▁happening	-5084
▁intention	-5085
▁kelelahan	-5086
▁melihatku	-5087
▁memberimu	-5088
▁memeriksa	-5089
▁mendorong	-5090
▁mengatasi	-5091
▁neighbors	-5092
▁tangannya	-5093
andatangani	-5094
▁Stasiunnya	-5095
▁absolutely	-5096
▁appreciate	-5097
▁bantuannya	-5098
▁berbelanja	-5099
▁berikutnya	-5100
▁kesukaanmu	-5101
▁masalahnya	-5102
▁meletakkan	-5103
▁membunuhku	-5104
▁memecahkan	-5105
▁menganggap	-5106
▁pendapatmu	-5107
▁perusahaan	-5108
▁restaurant	-5109
▁vegetables	-5110
▁berselancar	-5111
▁comfortable	-5112
▁complaining	-5113
▁grandmother	-5114
▁intelligent	-5115
▁mempelajari	-5116
▁mencintaimu	-5117
▁stomachache	-5118
▁understands	-5119
▁kelihatannya	-5120
▁mengecewakanku	-5121
".	-5122
FO	-5123
az	-5124
hy	-5125
kn	-5126
ks	-5127
lo	-5128
aju	-5129
amm	-5130
cks	-5131
iam	-5132
icy	-5133
ief	-5134
ins	-5135
ipt	-5136
kul	-5137
lat	-5138
uct	-5139
uni	-5140
usa	-5141
▁Dr	-5142
▁Em	-5143
▁Ko	-5144
▁Sc	-5145
▁Sp	-5146
▁da	-5147
▁ec	-5148
▁je	-5149
▁ji	-5150
ahab	-5151
ahil	-5152
ails	-5153
akat	-5154
aket	-5155
ango	-5156
arti	-5157
baru	-5158
buru	-5159
cing	-5160
ects	-5161
ests	-5162
ggak	-5163
iced	-5164
idih	-5165
ient	-5166
iles	-5167
ists	-5168
itan	-5169
ites	-5170
ling	-5171
osal	-5172
osqu	-5173
oton	-5174
rove	-5175
shir	-5176
stem	-5177
tiba	-5178
uasa	-5179
umat	-5180
unan	-5181
urau	-5182
view	-5183
▁200	-5184
▁Ask	-5185
▁Bib	-5186
▁Bir	-5187
▁Dad	-5188
▁Fac	-5189
▁Har	-5190
▁Jan	-5191
▁Jup	-5192
▁Kal	-5193
▁Kes	-5194
▁Kop	-5195
▁Kul	-5196
▁Nor	-5197
▁Pac	-5198
▁SMA	-5199
▁Sit	-5200
▁Tah	-5201
▁Tas	-5202
▁Try	-5203
▁alb	-5204
▁ann	-5205
▁aut	-5206
▁bat	-5207
▁bol	-5208
▁cab	-5209
▁cho	-5210
▁dew	-5211
▁isi	-5212
▁kac	-5213
▁lim	-5214
▁mid	-5215
▁mod	-5216
▁mys	-5217
▁nai	-5218
▁odd	-5219
▁pud	-5220
▁pus	-5221
▁ris	-5222
▁sih	-5223
▁spa	-5224
▁sud	-5225
▁sym	-5226
▁tot	-5227
▁web	-5228
▁wed	-5229
▁zoo	-5230
acket	-5231
adwal	-5232
agian	-5233
akkan	-5234
aksud	-5235
ampan	-5236
angsa	-5237
astic	-5238
atnya	-5239
ature	-5240
awanc	-5241
cient	-5242
eball	-5243
egang	-5244
elahi	-5245
ences	-5246
engat	-5247
ented	-5248
enyak	-5249
epper	-5250
epted	-5251
ereja	-5252
ested	-5253
ingan	-5254
ingku	-5255
istol	-5256
janya	-5257
kenal	-5258
kipun	-5259
odles	-5260
oduce	-5261
olled	-5262
onomi	-5263
orses	-5264
otion	-5265
tific	-5266
uncul	-5267
ushed	-5268
xteen	-5269
▁Astr	-5270
▁Gold	-5271
▁Help	-5272
▁Jaga	-5273
▁Kemb	-5274
▁Khan	-5275
▁Mata	-5276
▁Meks	-5277
▁Only	-5278
▁Pend	-5279
▁Peng	-5280
▁Sing	-5281
▁acqu	-5282
▁aula	-5283
▁bawa	-5284
▁beri	-5285
▁bite	-5286
▁cell	-5287
▁cerm	-5288
▁data	-5289
▁deaf	-5290
▁enem	-5291
▁foto	-5292
▁gate	-5293
▁hadn	-5294
▁hole	-5295
▁imag	-5296
▁inst	-5297
▁intr	-5298
▁izin	-5299
▁kiri	-5300
▁laut	-5301
▁lead	-5302
▁legs	-5303
▁liar	-5304
▁lots	-5305
▁loud	-5306
▁mari	-5307
▁okay	-5308
▁pest	-5309
▁peta	-5310
▁pity	-5311
▁pond	-5312
▁priv	-5313
▁puas	-5314
▁rail	-5315
▁rely	-5316
▁rent	-5317
▁ribu	-5318
▁sapi	-5319
▁scar	-5320
▁soup	-5321
▁sung	-5322
▁temb	-5323
▁trap	-5324
▁urus	-5325
▁wake	-5326
▁wore	-5327
▁wort	-5328
anakan	-5329
anakku	-5330
anggan	-5331
apanmu	-5332
aparan	-5333
ebakan	-5334
ecting	-5335
etahui	-5336
incang	-5337
ingkah	-5338
isfied	-5339
kurang	-5340
masing	-5341
osquit	-5342
rangan	-5343
ukuran	-5344
ulitan	-5345
▁Bulan	-5346
▁Happy	-5347
▁India	-5348
▁Jalan	-5349
▁Kedua	-5350
▁Kulit	-5351
▁Kyoto	-5352
▁Mexic	-5353
▁Natal	-5354
▁Ocean	-5355
▁Osaka	-5356
▁Pergi	-5357
▁Salah	-5358
▁Their	-5359
▁Waktu	-5360
▁Watch	-5361
▁aktor	-5362
▁avail	-5363
▁drank	-5364
▁eleph	-5365
▁email	-5366
▁flour	-5367
▁habis	-5368
▁hamil	-5369
▁hantu	-5370
▁hutan	-5371
▁impos	-5372
▁jelek	-5373
▁jokes	-5374
▁kesep	-5375
▁koper	-5376
▁kulit	-5377
▁manis	-5378
▁means	-5379
▁mimpi	-5380
▁musuh	-5381
▁nenek	-5382
▁nggak	-5383
▁noise	-5384
▁paman	-5385
▁peace	-5386
▁pelan	-5387
▁poker	-5388
▁pucat	-5389
▁rains	-5390
▁rooms	-5391
▁sesua	-5392
▁socks	-5393
▁stars	-5394
▁tajam	-5395
▁taken	-5396
▁tasmu	-5397
▁teeth	-5398
▁telat	-5399
▁third	-5400
▁tikus	-5401
▁tomat	-5402
▁trees	-5403
▁twice	-5404
▁utama	-5405
▁whole	-5406
▁women	-5407
▁worst	-5408
ahuinya	-5409
alaupun	-5410
anaknya	-5411
anggung	-5412
anyikan	-5413
astikan	-5414
epatnya	-5415
inginan	-5416
nyataan	-5417
otograp	-5418
ounting	-5419
ristmas	-5420
tawakan	-5421
▁Akulah	-5422
▁Bahkan	-5423
▁Dokter	-5424
▁Inilah	-5425
▁Italia	-5426
▁Jerman	-5427
▁Kereta	-5428
▁Sebuah	-5429
▁Selalu	-5430
▁bahaya	-5431
▁bantal	-5432
▁bercer	-5433
▁berder	-5434
▁berist	-5435
▁berpel	-5436
▁blames	-5437
▁bucket	-5438
▁burned	-5439
▁charge	-5440
▁cincin	-5441
▁commit	-5442
▁course	-5443
▁dahulu	-5444
▁destro	-5445
▁dewasa	-5446
▁engine	-5447
▁except	-5448
▁garasi	-5449
▁gereja	-5450
▁hardly	-5451
▁hitung	-5452
▁immedi	-5453
▁istana	-5454
▁itself	-5455
▁itulah	-5456
▁jumlah	-5457
▁kadang	-5458
▁kembar	-5459
▁konser	-5460
▁kredit	-5461
▁lasted	-5462
▁market	-5463
▁masing	-5464
▁maupun	-5465
▁menaik	-5466
▁mendis	-5467
▁mengag	-5468
▁menyir	-5469
▁mister	-5470
▁modern	-5471
▁muncul	-5472
▁novels	-5473
▁paspor	-5474
▁pember	-5475
▁poison	-5476
▁sambil	-5477
▁sarung	-5478
▁sempit	-5479
▁silver	-5480
▁slowly	-5481
▁smiled	-5482
▁spoken	-5483
▁starts	-5484
▁supper	-5485
▁tampan	-5486
▁tepung	-5487
▁terang	-5488
▁terpel	-5489
▁unable	-5490
▁yellow	-5491
awancara	-5492
engaruhi	-5493
temannya	-5494
▁Jupiter	-5495
▁Katakan	-5496
▁Lupakan	-5497
▁Meksiko	-5498
▁Pacific	-5499
▁Pasifik	-5500
▁Petugas	-5501
▁Smoking	-5502
▁Tahukah	-5503
▁Welcome	-5504
▁artinya	-5505
▁bananas	-5506
▁belongs	-5507
▁bendera	-5508
▁berkons	-5509
▁berniat	-5510
▁bersiap	-5511
▁beruang	-5512
▁berumur	-5513
▁carrots	-5514
▁catatan	-5515
▁climbed	-5516
▁collect	-5517
▁college	-5518
▁concert	-5519
▁dancing	-5520
▁diamond	-5521
▁dipecat	-5522
▁fingers	-5523
▁goodbye	-5524
▁hanging	-5525
▁holiday	-5526
▁istriku	-5527
▁istrimu	-5528
▁kakinya	-5529
▁kebenar	-5530
▁lainnya	-5531
▁lukisan	-5532
▁machine	-5533
▁matters	-5534
▁memaham	-5535
▁memukul	-5536
▁memulai	-5537
▁menemui	-5538
▁menjaga	-5539
▁missing	-5540
▁monoton	-5541
▁noodles	-5542
▁nyenyak	-5543
▁oranges	-5544
▁pelayan	-5545
▁perbeda	-5546
▁popular	-5547
▁realize	-5548
▁running	-5549
▁sixteen	-5550
▁surfing	-5551
▁talinya	-5552
▁telinga	-5553
▁tulisan	-5554
▁umumnya	-5555
▁washing	-5556
▁wedding	-5557
▁Bangunan	-5558
▁Dilarang	-5559
▁Facebook	-5560
▁Tidakkah	-5561
▁accepted	-5562
▁admitted	-5563
▁appeared	-5564
▁baseball	-5565
▁bergurau	-5566
▁convince	-5567
▁document	-5568
▁formulir	-5569
▁harusnya	-5570
▁headache	-5571
▁hujannya	-5572
▁keduanya	-5573
▁kemudian	-5574
▁maksudmu	-5575
▁melompat	-5576
▁mematuhi	-5577
▁membalas	-5578
▁mendidih	-5579
▁mengakui	-5580
▁mengatur	-5581
▁mengemud	-5582
▁mengetuk	-5583
▁menyesal	-5584
▁passport	-5585
▁penyanyi	-5586
▁pressure	-5587
▁schedule	-5588
▁sentence	-5589
▁serangga	-5590
▁siapapun	-5591
▁starting	-5592
▁suaranya	-5593
▁suratnya	-5594
▁tahunnya	-5595
▁temannya	-5596
antikannya	-5597
niversitas	-5598
▁Bangunlah	-5599
▁Canadians	-5600
▁Christmas	-5601
▁Dengarkan	-5602
▁Sayangnya	-5603
▁Terkadang	-5604
▁available	-5605
▁berfungsi	-5606
▁berkelahi	-5607
▁countries	-5608
▁dikatakan	-5609
▁dipercaya	-5610
▁expecting	-5611
▁interview	-5612
▁introduce	-5613
▁kelaparan	-5614
▁kesulitan	-5615
▁memaafkan	-5616
▁memintaku	-5617
▁mengharga	-5618
▁menghemat	-5619
▁meningkat	-5620
▁menyangka	-5621
▁mountains	-5622
▁pretended	-5623
▁sangatlah	-5624
▁somewhere	-5625
▁Masalahnya	-5626
▁bersamanya	-5627
▁difference	-5628
▁dipelajari	-5629
▁impossible	-5630
▁kekurangan	-5631
▁mempermain	-5632
▁menciumnya	-5633
▁menghadiri	-5634
▁permission	-5635
▁population	-5636
▁reasonable	-5637
▁teleponnya	-5638
▁understood	-5639
▁vegetarian	-5640
▁bertanggung	-5641
▁immediately	-5642
▁memperingat	-5643
▁menjelaskan	-5644
▁menyanyikan	-5645
▁menyerahkan	-5646
▁supermarket	-5647
▁beristirahat	-5648
▁menertawakan	-5649
▁Kedengarannya	-5650
▁mempermalukan	-5651
▁mendiskusikan	-5652
▁mengetahuinya	-5653
▁meninggalkanmu	-5654
▁mengkhawatirkan	-5655
br	-5656
go	-5657
gr	-5658
ji	-5659
yd	-5660
zz	-5661
How	-5662
avi	-5663
but	-5664
cak	-5665
eds	-5666
eed	-5667
eku	-5668
elf	-5669
ert	-5670
ety	-5671
gen	-5672
hip	-5673
hod	-5674
iga	-5675
ils	-5676
ism	-5677
isy	-5678
itz	-5679
ize	-5680
jar	-5681
key	-5682
omm	-5683
onf	-5684
oni	-5685
osa	-5686
rel	-5687
ror	-5688
sih	-5689
sin	-5690
ubb	-5691
ued	-5692
uel	-5693
urb	-5694
ury	-5695
yle	-5696
▁2.	-5697
▁By	-5698
▁Ed	-5699
▁Ot	-5700
▁Re	-5701
▁Tw	-5702
▁Ya	-5703
▁lo	-5704
▁ug	-5705
What	-5706
ahit	-5707
aise	-5708
anau	-5709
aruh	-5710
atis	-5711
cara	-5712
ched	-5713
crip	-5714
ease	-5715
eces	-5716
eker	-5717
elve	-5718
eren	-5719
eset	-5720
esit	-5721
gang	-5722
gent	-5723
icul	-5724
idik	-5725
ikap	-5726
iksi	-5727
imut	-5728
inan	-5729
ires	-5730
isan	-5731
jata	-5732
jauh	-5733
lass	-5734
pert	-5735
saan	-5736
trem	-5737
uari	-5738
uary	-5739
umpa	-5740
ungu	-5741
uris	-5742
utar	-5743
utku	-5744
vice	-5745
vide	-5746
▁Beg	-5747
▁Bon	-5748
▁Bus	-5749
▁But	-5750
▁Cut	-5751
▁Eat	-5752
▁Fin	-5753
▁Has	-5754
▁Hey	-5755
▁Isn	-5756
▁Mul	-5757
▁Oke	-5758
▁Piz	-5759
▁Rib	-5760
▁Rom	-5761
▁Sch	-5762
▁Ses	-5763
▁Sus	-5764
▁baj	-5765
▁ble	-5766
▁cow	-5767
▁def	-5768
▁due	-5769
▁fre	-5770
▁hun	-5771
▁ink	-5772
▁kor	-5773
▁leb	-5774
▁mew	-5775
▁oil	-5776
▁pag	-5777
▁pot	-5778
▁sir	-5779
▁tie	-5780
▁tub	-5781
▁unc	-5782
▁usi	-5783
▁whe	-5784
abbed	-5785
amiku	-5786
ances	-5787
anian	-5788
antan	-5789
antuk	-5790
apers	-5791
arkir	-5792
board	-5793
cious	-5794
cohol	-5795
denly	-5796
eless	-5797
embus	-5798
enjak	-5799
epend	-5800
eping	-5801
eraku	-5802
esome	-5803
fully	-5804
gelam	-5805
gnant	-5806
iders	-5807
igala	-5808
iking	-5809
ikuti	-5810
iliar	-5811
indak	-5812
ional	-5813
istic	-5814
itzer	-5815
iving	-5816
kohol	-5817
kumen	-5818
murid	-5819
night	-5820
ocket	-5821
ology	-5822
onomy	-5823
rance	-5824
sanya	-5825
sinya	-5826
store	-5827
urnit	-5828
urumu	-5829
usted	-5830
▁Apel	-5831
▁Baca	-5832
▁Cium	-5833
▁Cont	-5834
▁Fire	-5835
▁Ikan	-5836
▁Love	-5837
▁Mana	-5838
▁Menc	-5839
▁Pers	-5840
▁Rome	-5841
▁Shut	-5842
▁alam	-5843
▁arms	-5844
▁asli	-5845
▁auth	-5846
▁bags	-5847
▁bomb	-5848
▁boys	-5849
▁card	-5850
▁cash	-5851
▁clos	-5852
▁conn	-5853
▁cool	-5854
▁crim	-5855
▁crow	-5856
▁cucu	-5857
▁dawn	-5858
▁deal	-5859
▁disa	-5860
▁drew	-5861
▁drug	-5862
▁duty	-5863
▁educ	-5864
▁fair	-5865
▁fant	-5866
▁fear	-5867
▁fond	-5868
▁furt	-5869
▁gaji	-5870
▁gand	-5871
▁gaya	-5872
▁grew	-5873
▁guar	-5874
▁huku	-5875
▁insp	-5876
▁iron	-5877
▁jiwa	-5878
▁jump	-5879
▁juta	-5880
▁kena	-5881
▁kent	-5882
▁lari	-5883
▁leap	-5884
▁maga	-5885
▁nose	-5886
▁pale	-5887
▁perk	-5888
▁piza	-5889
▁poor	-5890
▁post	-5891
▁pron	-5892
▁puzz	-5893
▁race	-5894
▁raja	-5895
▁reck	-5896
▁requ	-5897
▁resc	-5898
▁sale	-5899
▁simp	-5900
▁sisi	-5901
▁soci	-5902
▁step	-5903
▁suhu	-5904
▁surv	-5905
▁tagi	-5906
▁terc	-5907
▁term	-5908
▁thin	-5909
▁tiap	-5910
▁tiri	-5911
▁truk	-5912
▁tuli	-5913
▁twin	-5914
▁type	-5915
▁ugly	-5916
▁weak	-5917
▁woke	-5918
abaran	-5919
ahabat	-5920
ajaran	-5921
angnya	-5922
atural	-5923
burung	-5924
ekolah	-5925
endang	-5926
handed	-5927
iapkan	-5928
idence	-5929
ihatan	-5930
jadian	-5931
lasses	-5932
layang	-5933
ormati	-5934
ounded	-5935
ressed	-5936
sampai	-5937
sional	-5938
stairs	-5939
ubborn	-5940
ukaimu	-5941
umbang	-5942
urance	-5943
zinkan	-5944
▁Andai	-5945
▁Benar	-5946
▁Blood	-5947
▁China	-5948
▁Dunia	-5949
▁Gadis	-5950
▁Ibumu	-5951
▁Jenis	-5952
▁Kerja	-5953
▁Mount	-5954
▁Mulai	-5955
▁Novel	-5956
▁Salju	-5957
▁Tahun	-5958
▁Tekan	-5959
▁Teman	-5960
▁badai	-5961
▁badly	-5962
▁beard	-5963
▁belok	-5964
▁birds	-5965
▁blank	-5966
▁cares	-5967
▁cause	-5968
▁cerah	-5969
▁contr	-5970
▁couch	-5971
▁gives	-5972
▁grade	-5973
▁grass	-5974
▁halte	-5975
▁hesit	-5976
▁jaket	-5977
▁kakek	-5978
▁kapal	-5979
▁kegel	-5980
▁lensa	-5981
▁lipat	-5982
▁major	-5983
▁meant	-5984
▁meman	-5985
▁menah	-5986
▁meter	-5987
▁napas	-5988
▁organ	-5989
▁pajak	-5990
▁pedas	-5991
▁pidat	-5992
▁pilot	-5993
▁power	-5994
▁punct	-5995
▁ratus	-5996
▁sabar	-5997
▁sadar	-5998
▁saved	-5999
▁sejam	-6000
▁sharp	-6001
▁sinar	-6002
▁spoke	-6003
▁storm	-6004
▁swims	-6005
▁talks	-6006
▁tebal	-6007
▁tekan	-6008
▁thief	-6009
▁threw	-6010
▁truck	-6011
▁tuamu	-6012
▁turis	-6013
▁upset	-6014
▁wajah	-6015
▁weren	-6016
▁woods	-6017
▁worse	-6018
abaikan	-6019
atuhkan	-6020
iculous	-6021
iterate	-6022
olehkan	-6023
osition	-6024
ousands	-6025
temanku	-6026
tremely	-6027
▁Adikku	-6028
▁Busnya	-6029
▁Canada	-6030
▁Datang	-6031
▁Dimana	-6032
▁Forget	-6033
▁Gedung	-6034
▁Ibunya	-6035
▁Kulkas	-6036
▁Namaku	-6037
▁Pabrik	-6038
▁Pulpen	-6039
▁Ribuan	-6040
▁Romans	-6041
▁School	-6042
▁Seekor	-6043
▁Should	-6044
▁Tomlah	-6045
▁adanya	-6046
▁asuran	-6047
▁attack	-6048
▁attemp	-6049
▁bensin	-6050
▁bisbol	-6051
▁bonnya	-6052
▁carpet	-6053
▁chairs	-6054
▁church	-6055
▁cooked	-6056
▁darimu	-6057
▁diatas	-6058
▁diperb	-6059
▁disini	-6060
▁dollar	-6061
▁dompet	-6062
▁drawer	-6063
▁faster	-6064
▁filled	-6065
▁fridge	-6066
▁frustr	-6067
▁furnit	-6068
▁ghosts	-6069
▁gratis	-6070
▁horses	-6071
▁houses	-6072
▁insane	-6073
▁jacket	-6074
▁kontak	-6075
▁layang	-6076
▁leaves	-6077
▁likely	-6078
▁lubang	-6079
▁mampir	-6080
▁masker	-6081
▁mengob	-6082
▁mengur	-6083
▁method	-6084
▁nearby	-6085
▁persik	-6086
▁pieces	-6087
▁pistol	-6088
▁pocket	-6089
▁ponsel	-6090
▁recomm	-6091
▁regret	-6092
▁renang	-6093
▁riding	-6094
▁ringan	-6095
▁rumput	-6096
▁seated	-6097
▁seeing	-6098
▁selain	-6099
▁seolah	-6100
▁sesuai	-6101
▁shower	-6102
▁silent	-6103
▁singer	-6104
▁stamps	-6105
▁sumber	-6106
▁system	-6107
▁takdir	-6108
▁terbit	-6109
▁twelve	-6110
▁washed	-6111
antainya	-6112
baikinya	-6113
eriksaan	-6114
▁Bawakan	-6115
▁Italian	-6116
▁Jawaban	-6117
▁Lukisan	-6118
▁Namanya	-6119
▁Nations	-6120
▁Nothing	-6121
▁Pertama	-6122
▁Sekolah	-6123
▁Switzer	-6124
▁ambulan	-6125
▁bayinya	-6126
▁bedroom	-6127
▁berarti	-6128
▁berisik	-6129
▁berlaku	-6130
▁bernama	-6131
▁blowing	-6132
▁capable	-6133
▁ceroboh	-6134
▁control	-6135
▁courage	-6136
▁darinya	-6137
▁dibunuh	-6138
▁disebut	-6139
▁disturb	-6140
▁dokumen	-6141
▁dropped	-6142
▁fainted	-6143
▁further	-6144
▁gunting	-6145
▁hukuman	-6146
▁insects	-6147
▁jebakan	-6148
▁kalimat	-6149
▁knocked	-6150
▁listrik	-6151
▁majalah	-6152
▁masakan	-6153
▁membenc	-6154
▁menahan	-6155
▁menaiki	-6156
▁menaruh	-6157
▁menduga	-6158
▁menebak	-6159
▁misteri	-6160
▁mosquit	-6161
▁natural	-6162
▁ngantuk	-6163
▁obvious	-6164
▁project	-6165
▁purpose	-6166
▁quickly	-6167
▁respect	-6168
▁sayuran	-6169
▁science	-6170
▁segelas	-6171
▁senjata	-6172
▁shocked	-6173
▁strober	-6174
▁tanpamu	-6175
▁tersisa	-6176
▁thanked	-6177
▁totally	-6178
▁tourist	-6179
▁usianya	-6180
▁walking	-6181
aksanakan	-6182
▁Atlantic	-6183
▁Atlantik	-6184
▁Beritahu	-6185
▁Bukannya	-6186
▁Cepatlah	-6187
▁Kulitnya	-6188
▁Lihatlah	-6189
▁Whatever	-6190
▁airplane	-6191
▁berfikir	-6192
▁berulang	-6193
▁consider	-6194
▁constell	-6195
▁contains	-6196
▁cuacanya	-6197
▁dijatuhi	-6198
▁diundang	-6199
▁engineer	-6200
▁entrance	-6201
▁familiar	-6202
▁fighting	-6203
▁handsome	-6204
▁hentikan	-6205
▁hidupnya	-6206
▁independ	-6207
▁internet	-6208
▁menangan	-6209
▁mengecat	-6210
▁menggali	-6211
▁mengunci	-6212
▁menjalan	-6213
▁mustahil	-6214
▁notebook	-6215
▁official	-6216
▁olahraga	-6217
▁penyakit	-6218
▁perlahan	-6219
▁pestanya	-6220
▁pinjaman	-6221
▁positive	-6222
▁pregnant	-6223
▁proposal	-6224
▁rambutmu	-6225
▁realized	-6226
▁reckless	-6227
▁restoran	-6228
▁sakitnya	-6229
▁screamed	-6230
▁sebanyak	-6231
▁sepedaku	-6232
▁somebody	-6233
▁strawber	-6234
▁stronger	-6235
▁stubborn	-6236
▁suaminya	-6237
▁suitcase	-6238
▁terbunuh	-6239
▁terburuk	-6240
▁wherever	-6241
▁wondered	-6242
▁Datanglah	-6243
▁Langitnya	-6244
▁Menurutku	-6245
▁Pelajaran	-6246
▁Sometimes	-6247
▁Thousands	-6248
▁bepergian	-6249
▁berdering	-6250
▁bermaksud	-6251
▁bersamaku	-6252
▁bersamamu	-6253
▁bookstore	-6254
▁buildings	-6255
▁certainly	-6256
▁direction	-6257
▁extremely	-6258
▁following	-6259
▁forgotten	-6260
▁insurance	-6261
▁istirahat	-6262
▁kegelapan	-6263
▁kelihatan	-6264
▁keretanya	-6265
▁melarikan	-6266
▁memberiku	-6267
▁menangkap	-6268
▁mengandal	-6269
▁menikmati	-6270
▁menyentuh	-6271
▁pelajaran	-6272
▁pembohong	-6273
▁photograp	-6274
▁rambutnya	-6275
▁satisfied	-6276
▁selamanya	-6277
▁sepedanya	-6278
▁tenggelam	-6279
▁tunjukkan	-6280
fortunately	-6281
▁Sebenarnya	-6282
▁apologized	-6283
▁berpelukan	-6284
▁bersekolah	-6285
▁collecting	-6286
▁department	-6287
▁discovered	-6288
▁humiliated	-6289
▁illiterate	-6290
▁jawabannya	-6291
▁kedatangan	-6292
▁komputerku	-6293
▁membelinya	-6294
▁memintanya	-6295
▁menahannya	-6296
▁menggambar	-6297
▁menghargai	-6298
▁menghubung	-6299
▁menungguku	-6300
▁menyiapkan	-6301
▁pengalaman	-6302
▁permasalah	-6303
▁pernikahan	-6304
▁pertanding	-6305
▁ridiculous	-6306
▁secepatnya	-6307
▁seringkali	-6308
▁sunglasses	-6309
▁terpeleset	-6310
▁tertinggal	-6311
▁Switzerland	-6312
▁mathematics	-6313
▁memahaminya	-6314
▁memperkenal	-6315
▁meneleponku	-6316
▁mengabaikan	-6317
▁mengantarmu	-6318
▁mengirimkan	-6319
▁menjatuhkan	-6320
▁perempuanku	-6321
▁profesional	-6322
▁Kelihatannya	-6323
▁kesalahannya	-6324
▁memaafkannya	-6325
▁mengeluarkan	-6326
▁mengemudikan	-6327
▁professional	-6328
▁mempercayaiku	-6329
▁menyelamatkan	-6330
▁memberitahunya	-6331
▁memperbaikinya	-6332
▁menandatangani	-6333
▁menjelaskannya	-6334
▁responsibility	-6335
DS	-6336
My	-6337
Th	-6338
fl	-6339
ha	-6340
iv	-6341
jo	-6342
ki	-6343
la	-6344
mi	-6345
xf	-6346
32.	-6347
IDS	-6348
abe	-6349
acy	-6350
aim	-6351
arr	-6352
aun	-6353
bid	-6354
bih	-6355
bly	-6356
cal	-6357
cut	-6358
ded	-6359
eja	-6360
eor	-6361
erc	-6362
erh	-6363
eri	-6364
erl	-6365
gae	-6366
gal	-6367
gna	-6368
ido	-6369
ino	-6370
ker	-6371
law	-6372
ler	-6373
lub	-6374
muk	-6375
nal	-6376
ney	-6377
oak	-6378
ols	-6379
oms	-6380
ono	-6381
oph	-6382
orp	-6383
osh	-6384
owe	-6385
raz	-6386
ria	-6387
sia	-6388
tig	-6389
tur	-6390
ude	-6391
udi	-6392
uly	-6393
urs	-6394
use	-6395
uts	-6396
was	-6397
yek	-6398
zat	-6399
▁22	-6400
▁3.	-6401
▁Ar	-6402
▁DJ	-6403
▁Fl	-6404
▁Kh	-6405
▁Of	-6406
▁Om	-6407
▁Ro	-6408
▁Tr	-6409
▁Wr	-6410
▁er	-6411
▁ge	-6412
▁ho	-6413
▁ro	-6414
Says	-6415
acel	-6416
aire	-6417
aked	-6418
akmu	-6419
akti	-6420
amai	-6421
anta	-6422
anto	-6423
apai	-6424
auan	-6425
aves	-6426
ebat	-6427
edib	-6428
ejak	-6429
ekan	-6430
emah	-6431
emas	-6432
emeh	-6433
enai	-6434
enov	-6435
entu	-6436
eral	-6437
eran	-6438
erve	-6439
esti	-6440
etik	-6441
foto	-6442
gesa	-6443
gois	-6444
hian	-6445
ibat	-6446
ibur	-6447
ides	-6448
ijak	-6449
ikam	-6450
ipat	-6451
iran	-6452
ises	-6453
joys	-6454
kira	-6455
kuat	-6456
mail	-6457
ocor	-6458
okan	-6459
okka	-6460
omas	-6461
omed	-6462
onal	-6463
otol	-6464
ouse	-6465
pits	-6466
ples	-6467
pret	-6468
ring	-6469
roat	-6470
sake	-6471
siun	-6472
ulti	-6473
umed	-6474
upun	-6475
uruf	-6476
usak	-6477
vern	-6478
zine	-6479
▁100	-6480
▁20,	-6481
▁Api	-6482
▁Bay	-6483
▁Che	-6484
▁Cob	-6485
▁Col	-6486
▁Din	-6487
▁Gar	-6488
▁Gre	-6489
▁Hot	-6490
▁Hum	-6491
▁Kuh	-6492
▁Los	-6493
▁Nap	-6494
▁Nov	-6495
▁Nya	-6496
▁Oxf	-6497
▁Pop	-6498
▁Rok	-6499
▁Sup	-6500
▁Way	-6501
▁Wow	-6502
▁agg	-6503
▁anx	-6504
▁arg	-6505
▁arr	-6506
▁avo	-6507
▁bal	-6508
▁cac	-6509
▁cre	-6510
▁eff	-6511
▁eks	-6512
▁fan	-6513
▁fil	-6514
▁gaj	-6515
▁gal	-6516
▁hop	-6517
▁jud	-6518
▁kek	-6519
▁ken	-6520
▁kon	-6521
▁kum	-6522
▁lac	-6523
▁leg	-6524
▁loc	-6525
▁lon	-6526
▁mal	-6527
▁mil	-6528
▁nar	-6529
▁non	-6530
▁owe	-6531
▁rat	-6532
▁rom	-6533
▁rum	-6534
▁sew	-6535
▁sho	-6536
▁ste	-6537
▁suk	-6538
▁tuk	-6539
▁ult	-6540
▁unf	-6541
▁unl	-6542
▁van	-6543
▁waj	-6544
Thank	-6545
abean	-6546
acted	-6547
aight	-6548
aikan	-6549
ailah	-6550
ained	-6551
aknya	-6552
alaku	-6553
ancur	-6554
antly	-6555
arted	-6556
arter	-6557
atian	-6558
aving	-6559
bunga	-6560
centr	-6561
cycle	-6562
elpon	-6563
emuan	-6564
emuda	-6565
endak	-6566
ength	-6567
enius	-6568
epeda	-6569
ering	-6570
etode	-6571
gegas	-6572
geles	-6573
gging	-6574
gilah	-6575
iakan	-6576
icted	-6577
ility	-6578
ilkan	-6579
iller	-6580
impor	-6581
inced	-6582
indar	-6583
inter	-6584
inyur	-6585
irkan	-6586
ising	-6587
istem	-6588
itung	-6589
jajar	-6590
lebih	-6591
linya	-6592
olded	-6593
olusi	-6594
olved	-6595
ongan	-6596
orced	-6597
ories	-6598
oured	-6599
raced	-6600
ratul	-6601
razil	-6602
resif	-6603
rying	-6604
struc	-6605
tanya	-6606
uated	-6607
ukamu	-6608
ukung	-6609
umbus	-6610
umpah	-6611
urate	-6612
utang	-6613
utter	-6614
▁AIDS	-6615
▁Asal	-6616
▁Baju	-6617
▁Biar	-6618
▁Bila	-6619
▁Bima	-6620
▁Bumi	-6621
▁Dogs	-6622
▁Emas	-6623
▁Febr	-6624
▁Five	-6625
▁Fort	-6626
▁From	-6627
▁Geor	-6628
▁Germ	-6629
▁Grab	-6630
▁Jauh	-6631
▁Juli	-6632
▁July	-6633
▁Kiss	-6634
▁Kota	-6635
▁Lear	-6636
▁Lisa	-6637
▁Mand	-6638
▁Math	-6639
▁Memb	-6640
▁Mona	-6641
▁Nept	-6642
▁Once	-6643
▁Pass	-6644
▁Peny	-6645
▁Raja	-6646
▁Saud	-6647
▁Time	-6648
▁Wash	-6649
▁arti	-6650
▁atom	-6651
▁aunt	-6652
▁body	-6653
▁bush	-6654
▁copy	-6655
▁cuci	-6656
▁cute	-6657
▁dasi	-6658
▁dece	-6659
▁elev	-6660
▁exit	-6661
▁feet	-6662
▁file	-6663
▁flat	-6664
▁fork	-6665
▁gamb	-6666
▁gram	-6667
▁happ	-6668
▁hill	-6669
▁hobi	-6670
▁jago	-6671
▁jobs	-6672
▁keny	-6673
▁laku	-6674
▁lasa	-6675
▁luas	-6676
▁lung	-6677
▁meal	-6678
▁nark	-6679
▁neck	-6680
▁nons	-6681
▁ones	-6682
▁orig	-6683
▁otak	-6684
▁padi	-6685
▁page	-6686
▁pand	-6687
▁pant	-6688
▁paru	-6689
▁pena	-6690
▁perd	-6691
▁pick	-6692
▁pool	-6693
▁pork	-6694
▁rabb	-6695
▁rapi	-6696
▁raya	-6697
▁repe	-6698
▁repl	-6699
▁runs	-6700
▁sits	-6701
▁sons	-6702
▁stat	-6703
▁tamu	-6704
▁tata	-6705
▁tepi	-6706
▁text	-6707
▁toys	-6708
▁typh	-6709
▁ukul	-6710
▁valu	-6711
▁weap	-6712
▁wins	-6713
Namaku	-6714
acelet	-6715
agiaan	-6716
ampang	-6717
ampung	-6718
andung	-6719
anggup	-6720
arrass	-6721
ayakan	-6722
bidden	-6723
ciuman	-6724
ecause	-6725
ecuted	-6726
elamat	-6727
ellent	-6728
entist	-6729
erbang	-6730
erhana	-6731
etulan	-6732
giatan	-6733
gunung	-6734
iasaan	-6735
idikan	-6736
inated	-6737
iously	-6738
irikan	-6739
isinya	-6740
issors	-6741
jamkan	-6742
lakimu	-6743
oduksi	-6744
oleksi	-6745
oshima	-6746
otland	-6747
ounced	-6748
ukakan	-6749
ulture	-6750
unjung	-6751
ustoms	-6752
vestig	-6753
▁2.30.	-6754
▁Afric	-6755
▁Belok	-6756
▁Belum	-6757
▁Birds	-6758
▁Cinta	-6759
▁Claus	-6760
▁Dalam	-6761
▁Danau	-6762
▁Darah	-6763
▁Enjoy	-6764
▁Esper	-6765
▁Harap	-6766
▁Hokka	-6767
▁Jumat	-6768
▁Kamar	-6769
▁Korea	-6770
▁Milky	-6771
▁Minum	-6772
▁Music	-6773
▁Musik	-6774
▁North	-6775
▁Raise	-6776
▁Roger	-6777
▁Sakti	-6778
▁Santa	-6779
▁Sepat	-6780
▁Seped	-6781
▁Since	-6782
▁Stand	-6783
▁Swiss	-6784
▁Telev	-6785
▁Tepat	-6786
▁Tetap	-6787
▁Tungg	-6788
▁Warna	-6789
▁Water	-6790
▁Write	-6791
▁aband	-6792
▁album	-6793
▁angka	-6794
▁banjo	-6795
▁bekas	-6796
▁below	-6797
▁benua	-6798
▁bocor	-6799
▁brand	-6800
▁brave	-6801
▁bukit	-6802
▁bulat	-6803
▁chose	-6804
▁claim	-6805
▁clock	-6806
▁cloud	-6807
▁coach	-6808
▁cried	-6809
▁cruel	-6810
▁deras	-6811
▁doors	-6812
▁egois	-6813
▁ember	-6814
▁ended	-6815
▁event	-6816
▁exist	-6817
▁fasih	-6818
▁fiksi	-6819
▁flood	-6820
▁fried	-6821
▁games	-6822
▁ganti	-6823
▁garis	-6824
▁geogr	-6825
▁grows	-6826
▁honey	-6827
▁hukum	-6828
▁humor	-6829
▁huruf	-6830
▁impro	-6831
▁jejak	-6832
▁kanji	-6833
▁kasar	-6834
▁kebah	-6835
▁kebut	-6836
▁keren	-6837
▁kurus	-6838
▁lebah	-6839
▁lemah	-6840
▁lezat	-6841
▁luang	-6842
▁lusin	-6843
▁macam	-6844
▁menaw	-6845
▁mente	-6846
▁mohon	-6847
▁noisy	-6848
▁overd	-6849
▁panik	-6850
▁paruh	-6851
▁pasta	-6852
▁patah	-6853
▁perak	-6854
▁peril	-6855
▁persu	-6856
▁polic	-6857
▁pusat	-6858
▁putus	-6859
▁regul	-6860
▁relax	-6861
▁reput	-6862
▁resmi	-6863
▁scary	-6864
▁sells	-6865
▁shelf	-6866
▁sixty	-6867
▁spicy	-6868
▁spilt	-6869
▁stead	-6870
▁stink	-6871
▁stuck	-6872
▁stuff	-6873
▁subuh	-6874
▁tengg	-6875
▁tepuk	-6876
▁tewas	-6877
▁tight	-6878
▁tools	-6879
▁topan	-6880
▁towel	-6881
▁trash	-6882
▁wound	-6883
amannya	-6884
asannya	-6885
asilkan	-6886
atalkan	-6887
ebaskan	-6888
ejutkan	-6889
eliling	-6890
emangat	-6891
entilah	-6892
entrasi	-6893
estival	-6894
faatkan	-6895
iptakan	-6896
itation	-6897
lakukan	-6898
loading	-6899
otograf	-6900
ressive	-6901
temanmu	-6902
ujurnya	-6903
▁Afrika	-6904
▁Almost	-6905
▁Apapun	-6906
▁Apples	-6907
▁Brazil	-6908
▁Dompet	-6909
▁Edison	-6910
▁France	-6911
▁Friday	-6912
▁Health	-6913
▁Humans	-6914
▁Korean	-6915
▁Mexico	-6916
▁Miller	-6917
▁Oxford	-6918
▁Sangat	-6919
▁Tenang	-6920
▁Thomas	-6921
▁accomp	-6922
▁akurat	-6923
▁assist	-6924
▁author	-6925
▁batang	-6926
▁behave	-6927
▁berisi	-6928
▁berjam	-6929
▁bright	-6930
▁buying	-6931
▁cermat	-6932
▁cities	-6933
▁clever	-6934
▁coklat	-6935
▁contin	-6936
▁cooper	-6937
▁danced	-6938
▁dibawa	-6939
▁dibeli	-6940
▁diluar	-6941
▁direct	-6942
▁enjoys	-6943
▁flight	-6944
▁fluent	-6945
▁fright	-6946
▁gandum	-6947
▁gelang	-6948
▁goreng	-6949
▁govern	-6950
▁gurumu	-6951
▁handed	-6952
▁harder	-6953
▁headed	-6954
▁height	-6955
▁hendak	-6956
▁hubung	-6957
▁ignore	-6958
▁intend	-6959
▁invite	-6960
▁jadwal	-6961
▁karpet	-6962
▁ketiga	-6963
▁landas	-6964
▁lelaki	-6965
▁lemari	-6966
▁lonely	-6967
▁mataku	-6968
▁memaks	-6969
▁membah	-6970
▁mengap	-6971
▁mengep	-6972
▁menyam	-6973
▁middle	-6974
▁narrow	-6975
▁native	-6976
▁nyamuk	-6977
▁pabrik	-6978
▁partic	-6979
▁pemalu	-6980
▁pemuda	-6981
▁pepper	-6982
▁permen	-6983
▁places	-6984
▁poured	-6985
▁produc	-6986
▁proyek	-6987
▁resign	-6988
▁romant	-6989
▁salary	-6990
▁selagi	-6991
▁selera	-6992
▁sembuh	-6993
▁sensit	-6994
▁signed	-6995
▁sistem	-6996
▁skiing	-6997
▁slight	-6998
▁solusi	-6999
▁spring	-7000
▁stands	-7001
▁tambah	-7002
▁trains	-7003
▁tukang	-7004
▁ukulel	-7005
▁ukuran	-7006
▁useful	-7007
▁within	-7008
▁worker	-7009
▁wortel	-7010
▁writes	-7011
anjutkan	-7012
centrate	-7013
indahkan	-7014
ntungnya	-7015
ockroach	-7016
ongratul	-7017
tificate	-7018
umpulkan	-7019
untungan	-7020
▁Angeles	-7021
▁Anybody	-7022
▁Cobalah	-7023
▁Customs	-7024
▁Finding	-7025
▁Germany	-7026
▁Hubungi	-7027
▁Kalimat	-7028
▁Kopinya	-7029
▁Kuharap	-7030
▁Maafkan	-7031
▁Manusia	-7032
▁Panggil	-7033
▁Sesuatu	-7034
▁Telepon	-7035
▁Washing	-7036
▁agresif	-7037
▁alkohol	-7038
▁anxious	-7039
▁armpits	-7040
▁avoided	-7041
▁blanket	-7042
▁bolanya	-7043
▁bottles	-7044
▁calling	-7045
▁crossed	-7046
▁decline	-7047
▁destroy	-7048
▁dipaksa	-7049
▁dipijak	-7050
▁disease	-7051
▁ditulis	-7052
▁dressed	-7053
▁enjoyed	-7054
▁escaped	-7055
▁filmnya	-7056
▁foolish	-7057
▁forever	-7058
▁forsake	-7059
▁gunakan	-7060
▁gunanya	-7061
▁haircut	-7062
▁harapan	-7063
▁harinya	-7064
▁heading	-7065
▁hearing	-7066
▁heavier	-7067
▁ilmuwan	-7068
▁imagine	-7069
▁instrum	-7070
▁jumping	-7071
▁kananku	-7072
▁kantong	-7073
▁katanya	-7074
▁kedalam	-7075
▁kenakan	-7076
▁lamanya	-7077
▁laporan	-7078
▁lasagna	-7079
▁lukanya	-7080
▁manapun	-7081
▁meaning	-7082
▁mejanya	-7083
▁meludah	-7084
▁meminum	-7085
▁meremeh	-7086
▁message	-7087
▁narkoba	-7088
▁noticed	-7089
▁offered	-7090
▁options	-7091
▁patient	-7092
▁pelatih	-7093
▁pensiun	-7094
▁perempu	-7095
▁pointed	-7096
▁popcorn	-7097
▁positif	-7098
▁pretend	-7099
▁puzzled	-7100
▁quarrel	-7101
▁refused	-7102
▁regular	-7103
▁reminds	-7104
▁rescued	-7105
▁rumahmu	-7106
▁sahabat	-7107
▁sanggup	-7108
▁satupun	-7109
▁selfish	-7110
▁selling	-7111
▁semesta	-7112
▁seratus	-7113
▁service	-7114
▁snowing	-7115
▁staying	-7116
▁studies	-7117
▁support	-7118
▁tahunmu	-7119
▁tentara	-7120
▁terburu	-7121
▁tergesa	-7122
▁terjaga	-7123
▁tongkat	-7124
▁trapped	-7125
▁watched	-7126
▁workers	-7127
▁workman	-7128
▁worries	-7129
anyaannya	-7130
aturannya	-7131
ingungkan	-7132
niversity	-7133
struction	-7134
▁American	-7135
▁Benarkah	-7136
▁Children	-7137
▁Columbus	-7138
▁Harusnya	-7139
▁Hentikan	-7140
▁Hokkaido	-7141
▁Jembatan	-7142
▁Matahari	-7143
▁Mobilnya	-7144
▁November	-7145
▁Nyalakan	-7146
▁Olahraga	-7147
▁Pastikan	-7148
▁Pendapat	-7149
▁Remember	-7150
▁Somebody	-7151
▁Teruslah	-7152
▁Tiongkok	-7153
▁Walaupun	-7154
▁approach	-7155
▁arrested	-7156
▁arriving	-7157
▁asuransi	-7158
▁believes	-7159
▁bergegas	-7160
▁beritahu	-7161
▁berjumpa	-7162
▁berlatih	-7163
▁berlibur	-7164
▁bracelet	-7165
▁brothers	-7166
▁customer	-7167
▁darimana	-7168
▁dilarang	-7169
▁distance	-7170
▁diterima	-7171
▁diterjem	-7172
▁elevator	-7173
▁embraced	-7174
▁executed	-7175
▁feelings	-7176
▁hanyalah	-7177
▁hasilnya	-7178
▁hesitate	-7179
▁imported	-7180
▁insinyur	-7181
▁inspired	-7182
▁invented	-7183
▁kameraku	-7184
▁kecilkan	-7185
▁kematian	-7186
▁kesepian	-7187
▁kilogram	-7188
▁komentar	-7189
▁kriminal	-7190
▁magazine	-7191
▁melempar	-7192
▁menelpon	-7193
▁mengajak	-7194
▁mengenai	-7195
▁menuruni	-7196
▁menyetir	-7197
▁menyiram	-7198
▁murdered	-7199
▁mustache	-7200
▁pelajari	-7201
▁perintah	-7202
▁perminta	-7203
▁petunjuk	-7204
▁prepared	-7205
▁punctual	-7206
▁scissors	-7207
▁seberang	-7208
▁seberapa	-7209
▁sedingin	-7210
▁sepotong	-7211
▁setinggi	-7212
▁solution	-7213
▁straight	-7214
▁stroberi	-7215
▁suddenly	-7216
▁supposed	-7217
▁surprise	-7218
▁tanganku	-7219
▁terdapat	-7220
▁terrible	-7221
▁tersedia	-7222
▁tetangga	-7223
▁untuknya	-7224
▁upstairs	-7225
▁Bangunkan	-7226
▁Esperanto	-7227
▁Kesehatan	-7228
▁Kulkasnya	-7229
▁Tenanglah	-7230
▁Tunggulah	-7231
▁Tunjukkan	-7232
▁abandoned	-7233
▁apartment	-7234
▁berhembus	-7235
▁bersepeda	-7236
▁bertarung	-7237
▁bertindak	-7238
▁convinced	-7239
▁dengarkan	-7240
▁dihindari	-7241
▁dijunjung	-7242
▁diketahui	-7243
▁ditangkap	-7244
▁embarrass	-7245
▁excellent	-7246
▁favoritku	-7247
▁forbidden	-7248
▁furniture	-7249
▁happiness	-7250
▁interpret	-7251
▁kebiasaan	-7252
▁kepadanya	-7253
▁kesabaran	-7254
▁kesehatan	-7255
▁kukatakan	-7256
▁makananmu	-7257
▁masalahku	-7258
▁membangun	-7259
▁menangani	-7260
▁mencariku	-7261
▁mencuriga	-7262
▁menendang	-7263
▁mengajari	-7264
▁mengantar	-7265
▁mengantuk	-7266
▁menggangg	-7267
▁menghadap	-7268
▁mengobrol	-7269
▁menjalani	-7270
▁menyimpan	-7271
▁ourselves	-7272
▁paintings	-7273
▁pelanggan	-7274
▁pengemudi	-7275
▁perbedaan	-7276
▁perkataan	-7277
▁pertamaku	-7278
▁pertolong	-7279
▁recommend	-7280
▁religious	-7281
▁screaming	-7282
▁secangkir	-7283
▁sekolahmu	-7284
▁singkatan	-7285
▁statement	-7286
▁surrender	-7287
▁tempurung	-7288
▁terdengar	-7289
▁terhindar	-7290
▁tombolnya	-7291
▁toothache	-7292
▁wawancara	-7293
▁Kebanyakan	-7294
▁Kecelakaan	-7295
▁Keluargaku	-7296
▁Makanannya	-7297
▁Matematika	-7298
▁aggressive	-7299
▁basketball	-7300
▁bergantung	-7301
▁berpikiran	-7302
▁bertingkah	-7303
▁departemen	-7304
▁diskusikan	-7305
▁everywhere	-7306
▁experience	-7307
▁frightened	-7308
▁memasukkan	-7309
▁membawakan	-7310
▁membencimu	-7311
▁memelihara	-7312
▁memercayai	-7313
▁menakutkan	-7314
▁menawarkan	-7315
▁mengadakan	-7316
▁mengoleksi	-7317
▁menunggang	-7318
▁menyalakan	-7319
▁menyetrika	-7320
▁motorcycle	-7321
▁newspapers	-7322
▁perasaanmu	-7323
▁pernyataan	-7324
▁seorangpun	-7325
▁tertangkap	-7326
▁translated	-7327
▁Berhentilah	-7328
▁Fortunately	-7329
▁Perlihatkan	-7330
▁certificate	-7331
▁concentrate	-7332
▁dikeluarkan	-7333
▁kebahagiaan	-7334
▁kesalahanku	-7335
▁membantunya	-7336
▁memenangkan	-7337
▁menciptakan	-7338
▁meneleponmu	-7339
▁menolongnya	-7340
▁millionaire	-7341
▁pekerjaanku	-7342
▁pemeriksaan	-7343
▁pendapatnya	-7344
▁diselesaikan	-7345
▁memanfaatkan	-7346
▁memberikanku	-7347
▁membiarkanmu	-7348
▁memeriksanya	-7349
▁menghasilkan	-7350
▁mengumpulkan	-7351
▁menyeberangi	-7352
▁pertandingan	-7353
▁constellation	-7354
▁diperbolehkan	-7355
▁diterjemahkan	-7356
▁membiarkannya	-7357
▁menantikannya	-7358
▁mengendalikan	-7359
▁menghancurkan	-7360
▁mempercayainya	-7361
▁mengingatkanku	-7362
▁mempermainkanku	-7363
",	-7364
1.	-7365
bl	-7366
na	-7367
sc	-7368
sh	-7369
ye	-7370
yi	-7371
yn	-7372
Tom	-7373
Yes	-7374
abu	-7375
alm	-7376
aly	-7377
ape	-7378
arb	-7379
arm	-7380
ato	-7381
auc	-7382
bar	-7383
bau	-7384
bus	-7385
cul	-7386
eah	-7387
ees	-7388
ene	-7389
erg	-7390
ets	-7391
gre	-7392
iff	-7393
jub	-7394
kom	-7395
kut	-7396
lar	-7397
ley	-7398
lim	-7399
cc	-7400
abi	-7401
ipi	-7402
loy	-7403
mos	-7404
nel	-7405
ocr	-7406
oki	-7407
oko	-7408
omu	-7409
onc	-7410
opi	-7411
par	-7412
pir	-7413
pul	-7414
que	-7415
rak	-7416
rib	-7417
rup	-7418
sed	-7419
tan	-7420
tet	-7421
thm	-7422
tra	-7423
ube	-7424
ulf	-7425
urd	-7426
wai	-7427
weg	-7428
win	-7429
yak	-7430
yan	-7431
yar	-7432
ydr	-7433
yet	-7434
▁21	-7435
▁AC	-7436
▁Bu	-7437
▁Cu	-7438
▁Gu	-7439
▁Pl	-7440
▁Sk	-7441
▁Sy	-7442
▁ef	-7443
▁fo	-7444
▁ga	-7445
▁ko	-7446
▁ni	-7447
▁ur	-7448
.000	-7449
Kata	-7450
Saya	-7451
abel	-7452
abit	-7453
adam	-7454
adop	-7455
aged	-7456
ager	-7457
aget	-7458
ahal	-7459
aint	-7460
ajat	-7461
aled	-7462
alls	-7463
ambu	-7464
amen	-7465
amun	-7466
andu	-7467
apus	-7468
arks	-7469
atap	-7470
ativ	-7471
aved	-7472
awai	-7473
bage	-7474
buah	-7475
cour	-7476
dara	-7477
door	-7478
ebar	-7479
eled	-7480
epuk	-7481
erek	-7482
erit	-7483
erti	-7484
eted	-7485
etic	-7486
gamu	-7487
giku	-7488
gree	-7489
hent	-7490
ials	-7491
iban	-7492
iche	-7493
icks	-7494
icle	-7495
iden	-7496
ifle	-7497
ikus	-7498
ilin	-7499
can	-7500
upa	-7501
▁Ba	-7502
aded	-7503
daun	-7504
ebus	-7505
igor	-7506
ikar	-7507
ilmi	-7508
inea	-7509
ines	-7510
ions	-7511
isah	-7512
kull	-7513
kupu	-7514
lang	-7515
mosp	-7516
olet	-7517
orns	-7518
osis	-7519
over	-7520
paru	-7521
penj	-7522
quat	-7523
rain	-7524
ravi	-7525
resi	-7526
sian	-7527
tama	-7528
tara	-7529
thir	-7530
tiga	-7531
town	-7532
uing	-7533
ults	-7534
umam	-7535
urid	-7536
usuk	-7537
utih	-7538
vent	-7539
yaku	-7540
▁Bag	-7541
▁Bom	-7542
▁Con	-7543
▁Day	-7544
▁Hei	-7545
▁Kor	-7546
▁Kro	-7547
▁Kub	-7548
▁Kud	-7549
▁Lel	-7550
▁Mei	-7551
▁Mel	-7552
▁Mes	-7553
▁Old	-7554
▁Pay	-7555
▁Pis	-7556
▁Rel	-7557
▁Res	-7558
▁Sed	-7559
▁Sur	-7560
▁Teh	-7561
▁Ten	-7562
▁Tep	-7563
▁Two	-7564
▁ace	-7565
▁bib	-7566
▁bij	-7567
▁bum	-7568
▁cir	-7569
▁der	-7570
▁dry	-7571
▁fed	-7572
▁fic	-7573
▁fig	-7574
▁gig	-7575
▁gim	-7576
▁hak	-7577
▁hay	-7578
▁hom	-7579
▁hug	-7580
▁ine	-7581
▁jal	-7582
▁kim	-7583
▁kud	-7584
▁lok	-7585
▁mey	-7586
▁mik	-7587
▁mim	-7588
▁nab	-7589
▁nod	-7590
▁nor	-7591
▁obs	-7592
▁opp	-7593
▁pac	-7594
▁pah	-7595
▁pat	-7596
▁por	-7597
▁rap	-7598
▁rob	-7599
▁i	-7600
00.	-7601
ete	-7602
dles	-7603
head	-7604
oons	-7605
rene	-7606
wich	-7607
▁aks	-7608
▁fem	-7609
▁hiu	-7610
▁iri	-7611
▁shr	-7612
▁tab	-7613
▁tid	-7614
▁tit	-7615
▁unp	-7616
▁upd	-7617
▁val	-7618
▁vom	-7619
ahuan	-7620
aking	-7621
alang	-7622
ality	-7623
allow	-7624
alnya	-7625
alous	-7626
ampil	-7627
andai	-7628
andar	-7629
andia	-7630
ankas	-7631
araku	-7632
aramu	-7633
arded	-7634
avoid	-7635
ayaan	-7636
barui	-7637
ching	-7638
cript	-7639
ected	-7640
embar	-7641
endar	-7642
enuhi	-7643
erapa	-7644
erful	-7645
essed	-7646
estim	-7647
gawai	-7648
ghter	-7649
given	-7650
grees	-7651
hidup	-7652
hroom	-7653
hythm	-7654
idays	-7655
ikasi	-7656
iment	-7657
ining	-7658
irely	-7659
isnya	-7660
isted	-7661
itter	-7662
junya	-7663
kotak	-7664
occer	-7665
olves	-7666
onsum	-7667
opted	-7668
osing	-7669
outhe	-7670
ovely	-7671
pered	-7672
ptoms	-7673
rayed	-7674
rible	-7675
shirt	-7676
sihan	-7677
uliah	-7678
uling	-7679
umlah	-7680
umpet	-7681
undur	-7682
ungku	-7683
untut	-7684
urger	-7685
urnya	-7686
utnya	-7687
wegia	-7688
▁2013	-7689
▁Aneh	-7690
▁Aren	-7691
▁Awas	-7692
▁Bayi	-7693
▁Beli	-7694
▁Berb	-7695
▁Berl	-7696
▁Bers	-7697
▁Brad	-7698
▁Cook	-7699
erd	-7700
eys	-7701
low	-7702
itis	-7703
▁Baw	-7704
▁mir	-7705
apain	-7706
harga	-7707
jabat	-7708
jawab	-7709
masuk	-7710
rical	-7711
struk	-7712
uasai	-7713
udaya	-7714
▁Alam	-7715
▁Batu	-7716
▁Cuci	-7717
▁Diam	-7718
▁Each	-7719
▁Feed	-7720
▁Fill	-7721
▁Gate	-7722
▁Hand	-7723
▁Jump	-7724
▁June	-7725
▁Juni	-7726
▁Kaki	-7727
▁Kant	-7728
▁Keju	-7729
▁Kira	-7730
▁Lagu	-7731
▁Lima	-7732
▁Make	-7733
▁Next	-7734
▁Park	-7735
▁Peel	-7736
▁Pemb	-7737
▁Penc	-7738
▁Perc	-7739
▁Piza	-7740
▁Pres	-7741
▁Rasa	-7742
▁Rice	-7743
▁Sama	-7744
▁Stud	-7745
▁Susu	-7746
▁Ters	-7747
▁Warn	-7748
▁Well	-7749
▁Were	-7750
▁Yeah	-7751
▁Year	-7752
▁adil	-7753
▁akta	-7754
▁arus	-7755
▁asap	-7756
▁attr	-7757
▁beat	-7758
▁beef	-7759
▁bila	-7760
▁blew	-7761
▁boat	-7762
▁bone	-7763
▁buys	-7764
▁cent	-7765
▁cope	-7766
▁crit	-7767
▁dama	-7768
▁diaj	-7769
▁diny	-7770
▁disp	-7771
▁dita	-7772
▁dust	-7773
▁exha	-7774
▁gall	-7775
▁gear	-7776
▁gemb	-7777
▁heat	-7778
▁hoax	-7779
▁ilmi	-7780
▁imut	-7781
▁janj	-7782
▁jour	-7783
▁kidn	-7784
▁kuno	-7785
▁lion	-7786
▁loan	-7787
▁luka	-7788
▁lumb	-7789
▁lusa	-7790
▁madu	-7791
▁mail	-7792
▁mant	-7793
▁mark	-7794
▁muka	-7795
▁mumb	-7796
▁naif	-7797
▁numb	-7798
▁ours	-7799
SA	-7800
▁ah	-7801
emar	-7802
omba	-7803
ware	-7804
▁oke	-7805
aikat	-7806
asnya	-7807
erang	-7808
usias	-7809
▁Hobi	-7810
▁ille	-7811
▁kamb	-7812
▁koin	-7813
▁pack	-7814
▁pair	-7815
▁perg	-7816
▁ping	-7817
▁push	-7818
▁rare	-7819
▁rode	-7820
▁rush	-7821
▁sant	-7822
▁sear	-7823
▁semi	-7824
▁seny	-7825
▁sese	-7826
▁sexy	-7827
▁sour	-7828
▁spec	-7829
▁spit	-7830
▁stem	-7831
▁subj	-7832
▁syok	-7833
▁teen	-7834
▁teor	-7835
▁till	-7836
▁tire	-7837
▁trad	-7838
▁ular	-7839
▁ungu	-7840
▁vari	-7841
▁view	-7842
▁webs	-7843
▁wept	-7844
▁wide	-7845
▁wise	-7846
▁wolf	-7847
Bangsa	-7848
Berapa	-7849
Terima	-7850
acunan	-7851
adopsi	-7852
agukan	-7853
akaian	-7854
aksana	-7855
akunya	-7856
alahan	-7857
alilah	-7858
amaian	-7859
andang	-7860
angkai	-7861
angkok	-7862
aninya	-7863
asikan	-7864
astern	-7865
atanya	-7866
atiwan	-7867
buahan	-7868
eksion	-7869
elawar	-7870
empuan	-7871
enekku	-7872
eneran	-7873
engang	-7874
ential	-7875
erikan	-7876
estern	-7877
etakan	-7878
hatian	-7879
iaknya	-7880
iburan	-7881
icated	-7882
irinya	-7883
itable	-7884
itched	-7885
iverse	-7886
komend	-7887
kumpul	-7888
lambat	-7889
likely	-7890
lished	-7891
nalist	-7892
obatan	-7893
omeday	-7894
onakan	-7895
ondisi	-7896
ondong	-7897
ongkar	-7898
onomic	-7899
quakes	-7900
rivers	-7901
roatia	-7902
thirty	-7903
ubahan	-7904
uguran	-7905
uhanmu	-7906
ultasi	-7907
unggah	-7908
ungimu	-7909
ungkit	-7910
verage	-7911
▁Allow	-7912
▁Angin	-7913
▁Asian	-7914
▁Begin	-7915
▁Black	-7916
▁Earth	-7917
▁Gajah	-7918
▁Gener	-7919
▁Hasil	-7920
▁Honey	-7921
▁Hotel	-7922
▁Ikuti	-7923
▁Ingat	-7924
▁Italy	-7925
▁Kupas	-7926
▁Kursi	-7927
▁Masuk	-7928
▁Money	-7929
▁Murid	-7930
▁Musim	-7931
▁Never	-7932
▁Omong	-7933
▁Pacar	-7934
▁Perek	-7935
▁Suara	-7936
▁Sulit	-7937
▁	-7938
a	-7939
e	-7940
n	-7941
i	-7942
t	-7943
o	-7944
u	-7945
r	-7946
s	-7947
m	-7948
k	-7949
h	-7950
.	-7951
d	-7952
l	-7953
g	-7954
y	-7955
b	-7956
p	-7957
T	-7958
c	-7959
w	-7960
I	-7961
f	-7962
?	-7963
'	-7964
A	-7965
v	-7966
j	-7967
S	-7968
M	-7969
K	-7970
D	-7971
W	-7972
,	-7973
H	-7974
B	-7975
-	-7976
P	-7977
Y	-7978
J	-7979
x	-7980
!	-7981
L	-7982
C	-7983
N	-7984
"	-7985
E	-7986
O	-7987
0	-7988
F	-7989
R	-7990
G	-7991
z	-7992
q	-7993
2	-7994
1	-7995
3	-7996
